#include "net_hls.h"

const uint16 conv1_weight[96][3][3] = {
    {{0xffff, 0xffff, 0xffff},
     {0xffff, 0xffff, 0xffff},
     {0xffff, 0xffff, 0xffff}},
    {{0xffff, 0xffff, 0xffff},
     {0xffff, 0xffff, 0xffff},
     {0xffff, 0xffff, 0xffff}},
    {{0xffff, 0xffff, 0xffff},
     {0xffff, 0xffff, 0xffff},
     {0xffff, 0xffff, 0xffff}},
    {{0xffff, 0xffff, 0xffff},
     {0xffff, 0xffff, 0xffff},
     {0xffff, 0xffff, 0xffff}},
    {{0xffff, 0xffff, 0xffff},
     {0xffff, 0xffff, 0xffff},
     {0xffff, 0xffff, 0xffff}},
    {{0xffff, 0xffff, 0xffff},
     {0xffff, 0xffff, 0xffff},
     {0xffff, 0xffff, 0xffff}},
    {{0xffff, 0xffff, 0xffff},
     {0xffff, 0xffff, 0xffff},
     {0xffff, 0xffff, 0xffff}},
    {{0xffff, 0xffff, 0xffff},
     {0xffff, 0xffff, 0xffff},
     {0xffff, 0xffff, 0xffff}},
    {{0xffff, 0xffff, 0xffff},
     {0xffff, 0xffff, 0xffff},
     {0xffff, 0xffff, 0xffff}},
    {{0xffff, 0xffff, 0xffff},
     {0xffff, 0xffff, 0xffff},
     {0xffff, 0xffff, 0xffff}},
    {{0xffff, 0xffff, 0xffff},
     {0xffff, 0xffff, 0xffff},
     {0xffff, 0xffff, 0xffff}},
    {{0xffff, 0xffff, 0xffff},
     {0xffff, 0xffff, 0xffff},
     {0xffff, 0xffff, 0xffff}},
    {{0xffff, 0xffff, 0xffff},
     {0xffff, 0xffff, 0xffff},
     {0xffff, 0xffff, 0xffff}},
    {{0xffff, 0xffff, 0xffff},
     {0xffff, 0xffff, 0xffff},
     {0xffff, 0xffff, 0xffff}},
    {{0xffff, 0xffff, 0xffff},
     {0xffff, 0xffff, 0xffff},
     {0xffff, 0xffff, 0xffff}},
    {{0xffff, 0xffff, 0xffff},
     {0xffff, 0xffff, 0xffff},
     {0xffff, 0xffff, 0xffff}},
    {{0xffff, 0xffff, 0xffff},
     {0xffff, 0xffff, 0xffff},
     {0xffff, 0xffff, 0xffff}},
    {{0xffff, 0xffff, 0xffff},
     {0xffff, 0xffff, 0xffff},
     {0xffff, 0xffff, 0xffff}},
    {{0xffff, 0xffff, 0xffff},
     {0xffff, 0xffff, 0xffff},
     {0xffff, 0xffff, 0xffff}},
    {{0xffff, 0xffff, 0xffff},
     {0xffff, 0xffff, 0xffff},
     {0xffff, 0xffff, 0xffff}},
    {{0xffff, 0xffff, 0xffff},
     {0xffff, 0xffff, 0xffff},
     {0xffff, 0xffff, 0xffff}},
    {{0xffff, 0xffff, 0xffff},
     {0xffff, 0xffff, 0xffff},
     {0xffff, 0xffff, 0xffff}},
    {{0xffff, 0xffff, 0xffff},
     {0xffff, 0xffff, 0xffff},
     {0xffff, 0xffff, 0xffff}},
    {{0xffff, 0xffff, 0xffff},
     {0xffff, 0xffff, 0xffff},
     {0xffff, 0xffff, 0xffff}},
    {{0xffff, 0xffff, 0xffff},
     {0xffff, 0xffff, 0xffff},
     {0xffff, 0xffff, 0xffff}},
    {{0xffff, 0xffff, 0xffff},
     {0xffff, 0xffff, 0xffff},
     {0xffff, 0xffff, 0xffff}},
    {{0xffff, 0xffff, 0xffff},
     {0xffff, 0xffff, 0xffff},
     {0xffff, 0xffff, 0xffff}},
    {{0xffff, 0xffff, 0xffff},
     {0xffff, 0xffff, 0xffff},
     {0xffff, 0xffff, 0xffff}},
    {{0xffff, 0xffff, 0xffff},
     {0xffff, 0xffff, 0xffff},
     {0xffff, 0xffff, 0xffff}},
    {{0xffff, 0xffff, 0xffff},
     {0xffff, 0xffff, 0xffff},
     {0xffff, 0xffff, 0xffff}},
    {{0xffff, 0xffff, 0xffff},
     {0xffff, 0xffff, 0xffff},
     {0xffff, 0xffff, 0xffff}},
    {{0xffff, 0xffff, 0xffff},
     {0xffff, 0xffff, 0xffff},
     {0xffff, 0xffff, 0xffff}},
    {{0xffff, 0xffff, 0xffff},
     {0xffff, 0xffff, 0xffff},
     {0xffff, 0xffff, 0xffff}},
    {{0xffff, 0xffff, 0xffff},
     {0xffff, 0xffff, 0xffff},
     {0xffff, 0xffff, 0xffff}},
    {{0xffff, 0xffff, 0xffff},
     {0xffff, 0xffff, 0xffff},
     {0xffff, 0xffff, 0xffff}},
    {{0xffff, 0xffff, 0xffff},
     {0xffff, 0xffff, 0xffff},
     {0xffff, 0xffff, 0xffff}},
    {{0xffff, 0xffff, 0xffff},
     {0xffff, 0xffff, 0xffff},
     {0xffff, 0xffff, 0xffff}},
    {{0xffff, 0xffff, 0xffff},
     {0xffff, 0xffff, 0xffff},
     {0xffff, 0xffff, 0xffff}},
    {{0xffff, 0xffff, 0xffff},
     {0xffff, 0xffff, 0xffff},
     {0xffff, 0xffff, 0xffff}},
    {{0xffff, 0xffff, 0xffff},
     {0xffff, 0xffff, 0xffff},
     {0xffff, 0xffff, 0xffff}},
    {{0xffff, 0xffff, 0xffff},
     {0xffff, 0xffff, 0xffff},
     {0xffff, 0xffff, 0xffff}},
    {{0xffff, 0xffff, 0xffff},
     {0xffff, 0xffff, 0xffff},
     {0xffff, 0xffff, 0xffff}},
    {{0xffff, 0xffff, 0xffff},
     {0xffff, 0xffff, 0xffff},
     {0xffff, 0xffff, 0xffff}},
    {{0xffff, 0xffff, 0xffff},
     {0xffff, 0xffff, 0xffff},
     {0xffff, 0xffff, 0xffff}},
    {{0xffff, 0xffff, 0xffff},
     {0xffff, 0xffff, 0xffff},
     {0xffff, 0xffff, 0xffff}},
    {{0xffff, 0xffff, 0xffff},
     {0xffff, 0xffff, 0xffff},
     {0xffff, 0xffff, 0xffff}},
    {{0xffff, 0xffff, 0xffff},
     {0xffff, 0xffff, 0xffff},
     {0xffff, 0xffff, 0xffff}},
    {{0xffff, 0xffff, 0xffff},
     {0xffff, 0xffff, 0xffff},
     {0xffff, 0xffff, 0xffff}},
    {{0xffff, 0xffff, 0xffff},
     {0xffff, 0xffff, 0xffff},
     {0xffff, 0xffff, 0xffff}},
    {{0xffff, 0xffff, 0xffff},
     {0xffff, 0xffff, 0xffff},
     {0xffff, 0xffff, 0xffff}},
    {{0xffff, 0xffff, 0xffff},
     {0xffff, 0xffff, 0xffff},
     {0xffff, 0xffff, 0xffff}},
    {{0xffff, 0xffff, 0xffff},
     {0xffff, 0xffff, 0xffff},
     {0xffff, 0xffff, 0xffff}},
    {{0xffff, 0xffff, 0xffff},
     {0xffff, 0xffff, 0xffff},
     {0xffff, 0xffff, 0xffff}},
    {{0xffff, 0xffff, 0xffff},
     {0xffff, 0xffff, 0xffff},
     {0xffff, 0xffff, 0xffff}},
    {{0xffff, 0xffff, 0xffff},
     {0xffff, 0xffff, 0xffff},
     {0xffff, 0xffff, 0xffff}},
    {{0xffff, 0xffff, 0xffff},
     {0xffff, 0xffff, 0xffff},
     {0xffff, 0xffff, 0xffff}},
    {{0xffff, 0xffff, 0xffff},
     {0xffff, 0xffff, 0xffff},
     {0xffff, 0xffff, 0xffff}},
    {{0xffff, 0xffff, 0xffff},
     {0xffff, 0xffff, 0xffff},
     {0xffff, 0xffff, 0xffff}},
    {{0xffff, 0xffff, 0xffff},
     {0xffff, 0xffff, 0xffff},
     {0xffff, 0xffff, 0xffff}},
    {{0xffff, 0xffff, 0xffff},
     {0xffff, 0xffff, 0xffff},
     {0xffff, 0xffff, 0xffff}},
    {{0xffff, 0xffff, 0xffff},
     {0xffff, 0xffff, 0xffff},
     {0xffff, 0xffff, 0xffff}},
    {{0xffff, 0xffff, 0xffff},
     {0xffff, 0xffff, 0xffff},
     {0xffff, 0xffff, 0xffff}},
    {{0xffff, 0xffff, 0xffff},
     {0xffff, 0xffff, 0xffff},
     {0xffff, 0xffff, 0xffff}},
    {{0xffff, 0xffff, 0xffff},
     {0xffff, 0xffff, 0xffff},
     {0xffff, 0xffff, 0xffff}},
    {{0xffff, 0xffff, 0xffff},
     {0xffff, 0xffff, 0xffff},
     {0xffff, 0xffff, 0xffff}},
    {{0xffff, 0xffff, 0xffff},
     {0xffff, 0xffff, 0xffff},
     {0xffff, 0xffff, 0xffff}},
    {{0xffff, 0xffff, 0xffff},
     {0xffff, 0xffff, 0xffff},
     {0xffff, 0xffff, 0xffff}},
    {{0xffff, 0xffff, 0xffff},
     {0xffff, 0xffff, 0xffff},
     {0xffff, 0xffff, 0xffff}},
    {{0xffff, 0xffff, 0xffff},
     {0xffff, 0xffff, 0xffff},
     {0xffff, 0xffff, 0xffff}},
    {{0xffff, 0xffff, 0xffff},
     {0xffff, 0xffff, 0xffff},
     {0xffff, 0xffff, 0xffff}},
    {{0xffff, 0xffff, 0xffff},
     {0xffff, 0xffff, 0xffff},
     {0xffff, 0xffff, 0xffff}},
    {{0xffff, 0xffff, 0xffff},
     {0xffff, 0xffff, 0xffff},
     {0xffff, 0xffff, 0xffff}},
    {{0xffff, 0xffff, 0xffff},
     {0xffff, 0xffff, 0xffff},
     {0xffff, 0xffff, 0xffff}},
    {{0xffff, 0xffff, 0xffff},
     {0xffff, 0xffff, 0xffff},
     {0xffff, 0xffff, 0xffff}},
    {{0xffff, 0xffff, 0xffff},
     {0xffff, 0xffff, 0xffff},
     {0xffff, 0xffff, 0xffff}},
    {{0xffff, 0xffff, 0xffff},
     {0xffff, 0xffff, 0xffff},
     {0xffff, 0xffff, 0xffff}},
    {{0xffff, 0xffff, 0xffff},
     {0xffff, 0xffff, 0xffff},
     {0xffff, 0xffff, 0xffff}},
    {{0xffff, 0xffff, 0xffff},
     {0xffff, 0xffff, 0xffff},
     {0xffff, 0xffff, 0xffff}},
    {{0xffff, 0xffff, 0xffff},
     {0xffff, 0xffff, 0xffff},
     {0xffff, 0xffff, 0xffff}},
    {{0xffff, 0xffff, 0xffff},
     {0xffff, 0xffff, 0xffff},
     {0xffff, 0xffff, 0xffff}},
    {{0xffff, 0xffff, 0xffff},
     {0xffff, 0xffff, 0xffff},
     {0xffff, 0xffff, 0xffff}},
    {{0xffff, 0xffff, 0xffff},
     {0xffff, 0xffff, 0xffff},
     {0xffff, 0xffff, 0xffff}},
    {{0xffff, 0xffff, 0xffff},
     {0xffff, 0xffff, 0xffff},
     {0xffff, 0xffff, 0xffff}},
    {{0xffff, 0xffff, 0xffff},
     {0xffff, 0xffff, 0xffff},
     {0xffff, 0xffff, 0xffff}},
    {{0xffff, 0xffff, 0xffff},
     {0xffff, 0xffff, 0xffff},
     {0xffff, 0xffff, 0xffff}},
    {{0xffff, 0xffff, 0xffff},
     {0xffff, 0xffff, 0xffff},
     {0xffff, 0xffff, 0xffff}},
    {{0xffff, 0xffff, 0xffff},
     {0xffff, 0xffff, 0xffff},
     {0xffff, 0xffff, 0xffff}},
    {{0xffff, 0xffff, 0xffff},
     {0xffff, 0xffff, 0xffff},
     {0xffff, 0xffff, 0xffff}},
    {{0xffff, 0xffff, 0xffff},
     {0xffff, 0xffff, 0xffff},
     {0xffff, 0xffff, 0xffff}},
    {{0xffff, 0xffff, 0xffff},
     {0xffff, 0xffff, 0xffff},
     {0xffff, 0xffff, 0xffff}},
    {{0xffff, 0xffff, 0xffff},
     {0xffff, 0xffff, 0xffff},
     {0xffff, 0xffff, 0xffff}},
    {{0xffff, 0xffff, 0xffff},
     {0xffff, 0xffff, 0xffff},
     {0xffff, 0xffff, 0xffff}},
    {{0xffff, 0xffff, 0xffff},
     {0xffff, 0xffff, 0xffff},
     {0xffff, 0xffff, 0xffff}},
    {{0xffff, 0xffff, 0xffff},
     {0xffff, 0xffff, 0xffff},
     {0xffff, 0xffff, 0xffff}},
    {{0xffff, 0xffff, 0xffff},
     {0xffff, 0xffff, 0xffff},
     {0xffff, 0xffff, 0xffff}},
    {{0xffff, 0xffff, 0xffff},
     {0xffff, 0xffff, 0xffff},
     {0xffff, 0xffff, 0xffff}}
};

const FIX_WT bn1_weight[16] = {
      0x3fff, 0x3fff, 0x3fff, 0x3fff, 0x3fff, 0x3fff, 0x3fff, 0x3fff,
      0x3fff, 0x3fff, 0x3fff, 0x3fff, 0x3fff, 0x3fff, 0x3fff, 0x3fff
};

const FIX_WT bn1_bias[16] = {
      0x3fff, 0x3fff, 0x3fff, 0x3fff, 0x3fff, 0x3fff, 0x3fff, 0x3fff,
      0x3fff, 0x3fff, 0x3fff, 0x3fff, 0x3fff, 0x3fff, 0x3fff, 0x3fff
};

const FIX_WT bn1_running_mean[16] = {
      0x3fff, 0x3fff, 0x3fff, 0x3fff, 0x3fff, 0x3fff, 0x3fff, 0x3fff,
      0x3fff, 0x3fff, 0x3fff, 0x3fff, 0x3fff, 0x3fff, 0x3fff, 0x3fff
};

const FIX_WT bn1_running_var[16] = {
      0x3fff, 0x3fff, 0x3fff, 0x3fff, 0x3fff, 0x3fff, 0x3fff, 0x3fff,
      0x3fff, 0x3fff, 0x3fff, 0x3fff, 0x3fff, 0x3fff, 0x3fff, 0x3fff
};

const FIX_WT layer1_0_rprelu1_shift_x_bias[16] = {
      0x3fff, 0x3fff, 0x3fff, 0x3fff, 0x3fff, 0x3fff, 0x3fff, 0x3fff,
      0x3fff, 0x3fff, 0x3fff, 0x3fff, 0x3fff, 0x3fff, 0x3fff, 0x3fff
};

const FIX_WT layer1_0_rprelu1_shift_y_bias[16] = {
      0x3fff, 0x3fff, 0x3fff, 0x3fff, 0x3fff, 0x3fff, 0x3fff, 0x3fff,
      0x3fff, 0x3fff, 0x3fff, 0x3fff, 0x3fff, 0x3fff, 0x3fff, 0x3fff
};

const FIX_WT layer1_0_rprelu1_prelu_weight[16] = {
      0x3fff, 0x3fff, 0x3fff, 0x3fff, 0x3fff, 0x3fff, 0x3fff, 0x3fff,
      0x3fff, 0x3fff, 0x3fff, 0x3fff, 0x3fff, 0x3fff, 0x3fff, 0x3fff
};

const FIX_WT layer1_0_rprelu2_shift_x_bias[16] = {
      0x3fff, 0x3fff, 0x3fff, 0x3fff, 0x3fff, 0x3fff, 0x3fff, 0x3fff,
      0x3fff, 0x3fff, 0x3fff, 0x3fff, 0x3fff, 0x3fff, 0x3fff, 0x3fff
};

const FIX_WT layer1_0_rprelu2_shift_y_bias[16] = {
      0x3fff, 0x3fff, 0x3fff, 0x3fff, 0x3fff, 0x3fff, 0x3fff, 0x3fff,
      0x3fff, 0x3fff, 0x3fff, 0x3fff, 0x3fff, 0x3fff, 0x3fff, 0x3fff
};

const FIX_WT layer1_0_rprelu2_prelu_weight[16] = {
      0x3fff, 0x3fff, 0x3fff, 0x3fff, 0x3fff, 0x3fff, 0x3fff, 0x3fff,
      0x3fff, 0x3fff, 0x3fff, 0x3fff, 0x3fff, 0x3fff, 0x3fff, 0x3fff
};

const uint64 layer1_0_conv1_weight[16][3][3] = {
    {{0xffff, 0xffff, 0xffff}, {0xffff, 0xffff, 0xffff}, {0xffff, 0xffff, 0xffff}},
    {{0xffff, 0xffff, 0xffff}, {0xffff, 0xffff, 0xffff}, {0xffff, 0xffff, 0xffff}},
    {{0xffff, 0xffff, 0xffff}, {0xffff, 0xffff, 0xffff}, {0xffff, 0xffff, 0xffff}},
    {{0xffff, 0xffff, 0xffff}, {0xffff, 0xffff, 0xffff}, {0xffff, 0xffff, 0xffff}},
    {{0xffff, 0xffff, 0xffff}, {0xffff, 0xffff, 0xffff}, {0xffff, 0xffff, 0xffff}},
    {{0xffff, 0xffff, 0xffff}, {0xffff, 0xffff, 0xffff}, {0xffff, 0xffff, 0xffff}},
    {{0xffff, 0xffff, 0xffff}, {0xffff, 0xffff, 0xffff}, {0xffff, 0xffff, 0xffff}},
    {{0xffff, 0xffff, 0xffff}, {0xffff, 0xffff, 0xffff}, {0xffff, 0xffff, 0xffff}},
    {{0xffff, 0xffff, 0xffff}, {0xffff, 0xffff, 0xffff}, {0xffff, 0xffff, 0xffff}},
    {{0xffff, 0xffff, 0xffff}, {0xffff, 0xffff, 0xffff}, {0xffff, 0xffff, 0xffff}},
    {{0xffff, 0xffff, 0xffff}, {0xffff, 0xffff, 0xffff}, {0xffff, 0xffff, 0xffff}},
    {{0xffff, 0xffff, 0xffff}, {0xffff, 0xffff, 0xffff}, {0xffff, 0xffff, 0xffff}},
    {{0xffff, 0xffff, 0xffff}, {0xffff, 0xffff, 0xffff}, {0xffff, 0xffff, 0xffff}},
    {{0xffff, 0xffff, 0xffff}, {0xffff, 0xffff, 0xffff}, {0xffff, 0xffff, 0xffff}},
    {{0xffff, 0xffff, 0xffff}, {0xffff, 0xffff, 0xffff}, {0xffff, 0xffff, 0xffff}},
    {{0xffff, 0xffff, 0xffff}, {0xffff, 0xffff, 0xffff}, {0xffff, 0xffff, 0xffff}}
};

const FIX_WT layer1_0_conv1_threshold[16] = {
      0x3fff, 0x3fff, 0x3fff, 0x3fff, 0x3fff, 0x3fff, 0x3fff, 0x3fff,
      0x3fff, 0x3fff, 0x3fff, 0x3fff, 0x3fff, 0x3fff, 0x3fff, 0x3fff
};

const FIX_WT layer1_0_bn1_weight[16] = {
      0x3fff, 0x3fff, 0x3fff, 0x3fff, 0x3fff, 0x3fff, 0x3fff, 0x3fff,
      0x3fff, 0x3fff, 0x3fff, 0x3fff, 0x3fff, 0x3fff, 0x3fff, 0x3fff
};

const FIX_WT layer1_0_bn1_bias[16] = {
      0x3fff, 0x3fff, 0x3fff, 0x3fff, 0x3fff, 0x3fff, 0x3fff, 0x3fff,
      0x3fff, 0x3fff, 0x3fff, 0x3fff, 0x3fff, 0x3fff, 0x3fff, 0x3fff
};

const FIX_WT layer1_0_bn1_running_mean[16] = {
      0x3fff, 0x3fff, 0x3fff, 0x3fff, 0x3fff, 0x3fff, 0x3fff, 0x3fff,
      0x3fff, 0x3fff, 0x3fff, 0x3fff, 0x3fff, 0x3fff, 0x3fff, 0x3fff
};

const FIX_WT layer1_0_bn1_running_var[16] = {
      0x3fff, 0x3fff, 0x3fff, 0x3fff, 0x3fff, 0x3fff, 0x3fff, 0x3fff,
      0x3fff, 0x3fff, 0x3fff, 0x3fff, 0x3fff, 0x3fff, 0x3fff, 0x3fff
};

const uint64 layer1_0_conv2_weight[16][3][3] = {
    {{0xffff, 0xffff, 0xffff}, {0xffff, 0xffff, 0xffff}, {0xffff, 0xffff, 0xffff}},
    {{0xffff, 0xffff, 0xffff}, {0xffff, 0xffff, 0xffff}, {0xffff, 0xffff, 0xffff}},
    {{0xffff, 0xffff, 0xffff}, {0xffff, 0xffff, 0xffff}, {0xffff, 0xffff, 0xffff}},
    {{0xffff, 0xffff, 0xffff}, {0xffff, 0xffff, 0xffff}, {0xffff, 0xffff, 0xffff}},
    {{0xffff, 0xffff, 0xffff}, {0xffff, 0xffff, 0xffff}, {0xffff, 0xffff, 0xffff}},
    {{0xffff, 0xffff, 0xffff}, {0xffff, 0xffff, 0xffff}, {0xffff, 0xffff, 0xffff}},
    {{0xffff, 0xffff, 0xffff}, {0xffff, 0xffff, 0xffff}, {0xffff, 0xffff, 0xffff}},
    {{0xffff, 0xffff, 0xffff}, {0xffff, 0xffff, 0xffff}, {0xffff, 0xffff, 0xffff}},
    {{0xffff, 0xffff, 0xffff}, {0xffff, 0xffff, 0xffff}, {0xffff, 0xffff, 0xffff}},
    {{0xffff, 0xffff, 0xffff}, {0xffff, 0xffff, 0xffff}, {0xffff, 0xffff, 0xffff}},
    {{0xffff, 0xffff, 0xffff}, {0xffff, 0xffff, 0xffff}, {0xffff, 0xffff, 0xffff}},
    {{0xffff, 0xffff, 0xffff}, {0xffff, 0xffff, 0xffff}, {0xffff, 0xffff, 0xffff}},
    {{0xffff, 0xffff, 0xffff}, {0xffff, 0xffff, 0xffff}, {0xffff, 0xffff, 0xffff}},
    {{0xffff, 0xffff, 0xffff}, {0xffff, 0xffff, 0xffff}, {0xffff, 0xffff, 0xffff}},
    {{0xffff, 0xffff, 0xffff}, {0xffff, 0xffff, 0xffff}, {0xffff, 0xffff, 0xffff}},
    {{0xffff, 0xffff, 0xffff}, {0xffff, 0xffff, 0xffff}, {0xffff, 0xffff, 0xffff}}
};

const FIX_WT layer1_0_conv2_threshold[16] = {
      0x3fff, 0x3fff, 0x3fff, 0x3fff, 0x3fff, 0x3fff, 0x3fff, 0x3fff,
      0x3fff, 0x3fff, 0x3fff, 0x3fff, 0x3fff, 0x3fff, 0x3fff, 0x3fff
};

const FIX_WT layer1_0_bn2_weight[16] = {
      0x3fff, 0x3fff, 0x3fff, 0x3fff, 0x3fff, 0x3fff, 0x3fff, 0x3fff,
      0x3fff, 0x3fff, 0x3fff, 0x3fff, 0x3fff, 0x3fff, 0x3fff, 0x3fff
};

const FIX_WT layer1_0_bn2_bias[16] = {
      0x3fff, 0x3fff, 0x3fff, 0x3fff, 0x3fff, 0x3fff, 0x3fff, 0x3fff,
      0x3fff, 0x3fff, 0x3fff, 0x3fff, 0x3fff, 0x3fff, 0x3fff, 0x3fff
};

const FIX_WT layer1_0_bn2_running_mean[16] = {
      0x3fff, 0x3fff, 0x3fff, 0x3fff, 0x3fff, 0x3fff, 0x3fff, 0x3fff,
      0x3fff, 0x3fff, 0x3fff, 0x3fff, 0x3fff, 0x3fff, 0x3fff, 0x3fff
};

const FIX_WT layer1_0_bn2_running_var[16] = {
      0x3fff, 0x3fff, 0x3fff, 0x3fff, 0x3fff, 0x3fff, 0x3fff, 0x3fff,
      0x3fff, 0x3fff, 0x3fff, 0x3fff, 0x3fff, 0x3fff, 0x3fff, 0x3fff
};

const FIX_WT layer1_0_bn3_weight[16] = {
      0x3fff, 0x3fff, 0x3fff, 0x3fff, 0x3fff, 0x3fff, 0x3fff, 0x3fff,
      0x3fff, 0x3fff, 0x3fff, 0x3fff, 0x3fff, 0x3fff, 0x3fff, 0x3fff
};

const FIX_WT layer1_0_bn3_bias[16] = {
      0x3fff, 0x3fff, 0x3fff, 0x3fff, 0x3fff, 0x3fff, 0x3fff, 0x3fff,
      0x3fff, 0x3fff, 0x3fff, 0x3fff, 0x3fff, 0x3fff, 0x3fff, 0x3fff
};

const FIX_WT layer1_0_bn3_running_mean[16] = {
      0x3fff, 0x3fff, 0x3fff, 0x3fff, 0x3fff, 0x3fff, 0x3fff, 0x3fff,
      0x3fff, 0x3fff, 0x3fff, 0x3fff, 0x3fff, 0x3fff, 0x3fff, 0x3fff
};

const FIX_WT layer1_0_bn3_running_var[16] = {
      0x3fff, 0x3fff, 0x3fff, 0x3fff, 0x3fff, 0x3fff, 0x3fff, 0x3fff,
      0x3fff, 0x3fff, 0x3fff, 0x3fff, 0x3fff, 0x3fff, 0x3fff, 0x3fff
};

const FIX_WT layer1_0_bn4_weight[16] = {
      0x3fff, 0x3fff, 0x3fff, 0x3fff, 0x3fff, 0x3fff, 0x3fff, 0x3fff,
      0x3fff, 0x3fff, 0x3fff, 0x3fff, 0x3fff, 0x3fff, 0x3fff, 0x3fff
};

const FIX_WT layer1_0_bn4_bias[16] = {
      0x3fff, 0x3fff, 0x3fff, 0x3fff, 0x3fff, 0x3fff, 0x3fff, 0x3fff,
      0x3fff, 0x3fff, 0x3fff, 0x3fff, 0x3fff, 0x3fff, 0x3fff, 0x3fff
};

const FIX_WT layer1_0_bn4_running_mean[16] = {
      0x3fff, 0x3fff, 0x3fff, 0x3fff, 0x3fff, 0x3fff, 0x3fff, 0x3fff,
      0x3fff, 0x3fff, 0x3fff, 0x3fff, 0x3fff, 0x3fff, 0x3fff, 0x3fff
};

const FIX_WT layer1_0_bn4_running_var[16] = {
      0x3fff, 0x3fff, 0x3fff, 0x3fff, 0x3fff, 0x3fff, 0x3fff, 0x3fff,
      0x3fff, 0x3fff, 0x3fff, 0x3fff, 0x3fff, 0x3fff, 0x3fff, 0x3fff
};

const FIX_WT layer1_1_rprelu1_shift_x_bias[16] = {
      0x3fff, 0x3fff, 0x3fff, 0x3fff, 0x3fff, 0x3fff, 0x3fff, 0x3fff,
      0x3fff, 0x3fff, 0x3fff, 0x3fff, 0x3fff, 0x3fff, 0x3fff, 0x3fff
};

const FIX_WT layer1_1_rprelu1_shift_y_bias[16] = {
      0x3fff, 0x3fff, 0x3fff, 0x3fff, 0x3fff, 0x3fff, 0x3fff, 0x3fff,
      0x3fff, 0x3fff, 0x3fff, 0x3fff, 0x3fff, 0x3fff, 0x3fff, 0x3fff
};

const FIX_WT layer1_1_rprelu1_prelu_weight[16] = {
      0x3fff, 0x3fff, 0x3fff, 0x3fff, 0x3fff, 0x3fff, 0x3fff, 0x3fff,
      0x3fff, 0x3fff, 0x3fff, 0x3fff, 0x3fff, 0x3fff, 0x3fff, 0x3fff
};

const FIX_WT layer1_1_rprelu2_shift_x_bias[16] = {
      0x3fff, 0x3fff, 0x3fff, 0x3fff, 0x3fff, 0x3fff, 0x3fff, 0x3fff,
      0x3fff, 0x3fff, 0x3fff, 0x3fff, 0x3fff, 0x3fff, 0x3fff, 0x3fff
};

const FIX_WT layer1_1_rprelu2_shift_y_bias[16] = {
      0x3fff, 0x3fff, 0x3fff, 0x3fff, 0x3fff, 0x3fff, 0x3fff, 0x3fff,
      0x3fff, 0x3fff, 0x3fff, 0x3fff, 0x3fff, 0x3fff, 0x3fff, 0x3fff
};

const FIX_WT layer1_1_rprelu2_prelu_weight[16] = {
      0x3fff, 0x3fff, 0x3fff, 0x3fff, 0x3fff, 0x3fff, 0x3fff, 0x3fff,
      0x3fff, 0x3fff, 0x3fff, 0x3fff, 0x3fff, 0x3fff, 0x3fff, 0x3fff
};

const uint64 layer1_1_conv1_weight[16][3][3] = {
    {{0xffff, 0xffff, 0xffff}, {0xffff, 0xffff, 0xffff}, {0xffff, 0xffff, 0xffff}},
    {{0xffff, 0xffff, 0xffff}, {0xffff, 0xffff, 0xffff}, {0xffff, 0xffff, 0xffff}},
    {{0xffff, 0xffff, 0xffff}, {0xffff, 0xffff, 0xffff}, {0xffff, 0xffff, 0xffff}},
    {{0xffff, 0xffff, 0xffff}, {0xffff, 0xffff, 0xffff}, {0xffff, 0xffff, 0xffff}},
    {{0xffff, 0xffff, 0xffff}, {0xffff, 0xffff, 0xffff}, {0xffff, 0xffff, 0xffff}},
    {{0xffff, 0xffff, 0xffff}, {0xffff, 0xffff, 0xffff}, {0xffff, 0xffff, 0xffff}},
    {{0xffff, 0xffff, 0xffff}, {0xffff, 0xffff, 0xffff}, {0xffff, 0xffff, 0xffff}},
    {{0xffff, 0xffff, 0xffff}, {0xffff, 0xffff, 0xffff}, {0xffff, 0xffff, 0xffff}},
    {{0xffff, 0xffff, 0xffff}, {0xffff, 0xffff, 0xffff}, {0xffff, 0xffff, 0xffff}},
    {{0xffff, 0xffff, 0xffff}, {0xffff, 0xffff, 0xffff}, {0xffff, 0xffff, 0xffff}},
    {{0xffff, 0xffff, 0xffff}, {0xffff, 0xffff, 0xffff}, {0xffff, 0xffff, 0xffff}},
    {{0xffff, 0xffff, 0xffff}, {0xffff, 0xffff, 0xffff}, {0xffff, 0xffff, 0xffff}},
    {{0xffff, 0xffff, 0xffff}, {0xffff, 0xffff, 0xffff}, {0xffff, 0xffff, 0xffff}},
    {{0xffff, 0xffff, 0xffff}, {0xffff, 0xffff, 0xffff}, {0xffff, 0xffff, 0xffff}},
    {{0xffff, 0xffff, 0xffff}, {0xffff, 0xffff, 0xffff}, {0xffff, 0xffff, 0xffff}},
    {{0xffff, 0xffff, 0xffff}, {0xffff, 0xffff, 0xffff}, {0xffff, 0xffff, 0xffff}}
};

const FIX_WT layer1_1_conv1_threshold[16] = {
      0x3fff, 0x3fff, 0x3fff, 0x3fff, 0x3fff, 0x3fff, 0x3fff, 0x3fff,
      0x3fff, 0x3fff, 0x3fff, 0x3fff, 0x3fff, 0x3fff, 0x3fff, 0x3fff
};

const FIX_WT layer1_1_bn1_weight[16] = {
      0x3fff, 0x3fff, 0x3fff, 0x3fff, 0x3fff, 0x3fff, 0x3fff, 0x3fff,
      0x3fff, 0x3fff, 0x3fff, 0x3fff, 0x3fff, 0x3fff, 0x3fff, 0x3fff
};

const FIX_WT layer1_1_bn1_bias[16] = {
      0x3fff, 0x3fff, 0x3fff, 0x3fff, 0x3fff, 0x3fff, 0x3fff, 0x3fff,
      0x3fff, 0x3fff, 0x3fff, 0x3fff, 0x3fff, 0x3fff, 0x3fff, 0x3fff
};

const FIX_WT layer1_1_bn1_running_mean[16] = {
      0x3fff, 0x3fff, 0x3fff, 0x3fff, 0x3fff, 0x3fff, 0x3fff, 0x3fff,
      0x3fff, 0x3fff, 0x3fff, 0x3fff, 0x3fff, 0x3fff, 0x3fff, 0x3fff
};

const FIX_WT layer1_1_bn1_running_var[16] = {
      0x3fff, 0x3fff, 0x3fff, 0x3fff, 0x3fff, 0x3fff, 0x3fff, 0x3fff,
      0x3fff, 0x3fff, 0x3fff, 0x3fff, 0x3fff, 0x3fff, 0x3fff, 0x3fff
};

const uint64 layer1_1_conv2_weight[16][3][3] = {
    {{0xffff, 0xffff, 0xffff}, {0xffff, 0xffff, 0xffff}, {0xffff, 0xffff, 0xffff}},
    {{0xffff, 0xffff, 0xffff}, {0xffff, 0xffff, 0xffff}, {0xffff, 0xffff, 0xffff}},
    {{0xffff, 0xffff, 0xffff}, {0xffff, 0xffff, 0xffff}, {0xffff, 0xffff, 0xffff}},
    {{0xffff, 0xffff, 0xffff}, {0xffff, 0xffff, 0xffff}, {0xffff, 0xffff, 0xffff}},
    {{0xffff, 0xffff, 0xffff}, {0xffff, 0xffff, 0xffff}, {0xffff, 0xffff, 0xffff}},
    {{0xffff, 0xffff, 0xffff}, {0xffff, 0xffff, 0xffff}, {0xffff, 0xffff, 0xffff}},
    {{0xffff, 0xffff, 0xffff}, {0xffff, 0xffff, 0xffff}, {0xffff, 0xffff, 0xffff}},
    {{0xffff, 0xffff, 0xffff}, {0xffff, 0xffff, 0xffff}, {0xffff, 0xffff, 0xffff}},
    {{0xffff, 0xffff, 0xffff}, {0xffff, 0xffff, 0xffff}, {0xffff, 0xffff, 0xffff}},
    {{0xffff, 0xffff, 0xffff}, {0xffff, 0xffff, 0xffff}, {0xffff, 0xffff, 0xffff}},
    {{0xffff, 0xffff, 0xffff}, {0xffff, 0xffff, 0xffff}, {0xffff, 0xffff, 0xffff}},
    {{0xffff, 0xffff, 0xffff}, {0xffff, 0xffff, 0xffff}, {0xffff, 0xffff, 0xffff}},
    {{0xffff, 0xffff, 0xffff}, {0xffff, 0xffff, 0xffff}, {0xffff, 0xffff, 0xffff}},
    {{0xffff, 0xffff, 0xffff}, {0xffff, 0xffff, 0xffff}, {0xffff, 0xffff, 0xffff}},
    {{0xffff, 0xffff, 0xffff}, {0xffff, 0xffff, 0xffff}, {0xffff, 0xffff, 0xffff}},
    {{0xffff, 0xffff, 0xffff}, {0xffff, 0xffff, 0xffff}, {0xffff, 0xffff, 0xffff}}
};

const FIX_WT layer1_1_conv2_threshold[16] = {
      0x3fff, 0x3fff, 0x3fff, 0x3fff, 0x3fff, 0x3fff, 0x3fff, 0x3fff,
      0x3fff, 0x3fff, 0x3fff, 0x3fff, 0x3fff, 0x3fff, 0x3fff, 0x3fff
};

const FIX_WT layer1_1_bn2_weight[16] = {
      0x3fff, 0x3fff, 0x3fff, 0x3fff, 0x3fff, 0x3fff, 0x3fff, 0x3fff,
      0x3fff, 0x3fff, 0x3fff, 0x3fff, 0x3fff, 0x3fff, 0x3fff, 0x3fff
};

const FIX_WT layer1_1_bn2_bias[16] = {
      0x3fff, 0x3fff, 0x3fff, 0x3fff, 0x3fff, 0x3fff, 0x3fff, 0x3fff,
      0x3fff, 0x3fff, 0x3fff, 0x3fff, 0x3fff, 0x3fff, 0x3fff, 0x3fff
};

const FIX_WT layer1_1_bn2_running_mean[16] = {
      0x3fff, 0x3fff, 0x3fff, 0x3fff, 0x3fff, 0x3fff, 0x3fff, 0x3fff,
      0x3fff, 0x3fff, 0x3fff, 0x3fff, 0x3fff, 0x3fff, 0x3fff, 0x3fff
};

const FIX_WT layer1_1_bn2_running_var[16] = {
      0x3fff, 0x3fff, 0x3fff, 0x3fff, 0x3fff, 0x3fff, 0x3fff, 0x3fff,
      0x3fff, 0x3fff, 0x3fff, 0x3fff, 0x3fff, 0x3fff, 0x3fff, 0x3fff
};

const FIX_WT layer1_1_bn3_weight[16] = {
      0x3fff, 0x3fff, 0x3fff, 0x3fff, 0x3fff, 0x3fff, 0x3fff, 0x3fff,
      0x3fff, 0x3fff, 0x3fff, 0x3fff, 0x3fff, 0x3fff, 0x3fff, 0x3fff
};

const FIX_WT layer1_1_bn3_bias[16] = {
      0x3fff, 0x3fff, 0x3fff, 0x3fff, 0x3fff, 0x3fff, 0x3fff, 0x3fff,
      0x3fff, 0x3fff, 0x3fff, 0x3fff, 0x3fff, 0x3fff, 0x3fff, 0x3fff
};

const FIX_WT layer1_1_bn3_running_mean[16] = {
      0x3fff, 0x3fff, 0x3fff, 0x3fff, 0x3fff, 0x3fff, 0x3fff, 0x3fff,
      0x3fff, 0x3fff, 0x3fff, 0x3fff, 0x3fff, 0x3fff, 0x3fff, 0x3fff
};

const FIX_WT layer1_1_bn3_running_var[16] = {
      0x3fff, 0x3fff, 0x3fff, 0x3fff, 0x3fff, 0x3fff, 0x3fff, 0x3fff,
      0x3fff, 0x3fff, 0x3fff, 0x3fff, 0x3fff, 0x3fff, 0x3fff, 0x3fff
};

const FIX_WT layer1_1_bn4_weight[16] = {
      0x3fff, 0x3fff, 0x3fff, 0x3fff, 0x3fff, 0x3fff, 0x3fff, 0x3fff,
      0x3fff, 0x3fff, 0x3fff, 0x3fff, 0x3fff, 0x3fff, 0x3fff, 0x3fff
};

const FIX_WT layer1_1_bn4_bias[16] = {
      0x3fff, 0x3fff, 0x3fff, 0x3fff, 0x3fff, 0x3fff, 0x3fff, 0x3fff,
      0x3fff, 0x3fff, 0x3fff, 0x3fff, 0x3fff, 0x3fff, 0x3fff, 0x3fff
};

const FIX_WT layer1_1_bn4_running_mean[16] = {
      0x3fff, 0x3fff, 0x3fff, 0x3fff, 0x3fff, 0x3fff, 0x3fff, 0x3fff,
      0x3fff, 0x3fff, 0x3fff, 0x3fff, 0x3fff, 0x3fff, 0x3fff, 0x3fff
};

const FIX_WT layer1_1_bn4_running_var[16] = {
      0x3fff, 0x3fff, 0x3fff, 0x3fff, 0x3fff, 0x3fff, 0x3fff, 0x3fff,
      0x3fff, 0x3fff, 0x3fff, 0x3fff, 0x3fff, 0x3fff, 0x3fff, 0x3fff
};

const FIX_WT layer1_2_rprelu1_shift_x_bias[16] = {
      0x3fff, 0x3fff, 0x3fff, 0x3fff, 0x3fff, 0x3fff, 0x3fff, 0x3fff,
      0x3fff, 0x3fff, 0x3fff, 0x3fff, 0x3fff, 0x3fff, 0x3fff, 0x3fff
};

const FIX_WT layer1_2_rprelu1_shift_y_bias[16] = {
      0x3fff, 0x3fff, 0x3fff, 0x3fff, 0x3fff, 0x3fff, 0x3fff, 0x3fff,
      0x3fff, 0x3fff, 0x3fff, 0x3fff, 0x3fff, 0x3fff, 0x3fff, 0x3fff
};

const FIX_WT layer1_2_rprelu1_prelu_weight[16] = {
      0x3fff, 0x3fff, 0x3fff, 0x3fff, 0x3fff, 0x3fff, 0x3fff, 0x3fff,
      0x3fff, 0x3fff, 0x3fff, 0x3fff, 0x3fff, 0x3fff, 0x3fff, 0x3fff
};

const FIX_WT layer1_2_rprelu2_shift_x_bias[16] = {
      0x3fff, 0x3fff, 0x3fff, 0x3fff, 0x3fff, 0x3fff, 0x3fff, 0x3fff,
      0x3fff, 0x3fff, 0x3fff, 0x3fff, 0x3fff, 0x3fff, 0x3fff, 0x3fff
};

const FIX_WT layer1_2_rprelu2_shift_y_bias[16] = {
      0x3fff, 0x3fff, 0x3fff, 0x3fff, 0x3fff, 0x3fff, 0x3fff, 0x3fff,
      0x3fff, 0x3fff, 0x3fff, 0x3fff, 0x3fff, 0x3fff, 0x3fff, 0x3fff
};

const FIX_WT layer1_2_rprelu2_prelu_weight[16] = {
      0x3fff, 0x3fff, 0x3fff, 0x3fff, 0x3fff, 0x3fff, 0x3fff, 0x3fff,
      0x3fff, 0x3fff, 0x3fff, 0x3fff, 0x3fff, 0x3fff, 0x3fff, 0x3fff
};

const uint64 layer1_2_conv1_weight[16][3][3] = {
    {{0xffff, 0xffff, 0xffff}, {0xffff, 0xffff, 0xffff}, {0xffff, 0xffff, 0xffff}},
    {{0xffff, 0xffff, 0xffff}, {0xffff, 0xffff, 0xffff}, {0xffff, 0xffff, 0xffff}},
    {{0xffff, 0xffff, 0xffff}, {0xffff, 0xffff, 0xffff}, {0xffff, 0xffff, 0xffff}},
    {{0xffff, 0xffff, 0xffff}, {0xffff, 0xffff, 0xffff}, {0xffff, 0xffff, 0xffff}},
    {{0xffff, 0xffff, 0xffff}, {0xffff, 0xffff, 0xffff}, {0xffff, 0xffff, 0xffff}},
    {{0xffff, 0xffff, 0xffff}, {0xffff, 0xffff, 0xffff}, {0xffff, 0xffff, 0xffff}},
    {{0xffff, 0xffff, 0xffff}, {0xffff, 0xffff, 0xffff}, {0xffff, 0xffff, 0xffff}},
    {{0xffff, 0xffff, 0xffff}, {0xffff, 0xffff, 0xffff}, {0xffff, 0xffff, 0xffff}},
    {{0xffff, 0xffff, 0xffff}, {0xffff, 0xffff, 0xffff}, {0xffff, 0xffff, 0xffff}},
    {{0xffff, 0xffff, 0xffff}, {0xffff, 0xffff, 0xffff}, {0xffff, 0xffff, 0xffff}},
    {{0xffff, 0xffff, 0xffff}, {0xffff, 0xffff, 0xffff}, {0xffff, 0xffff, 0xffff}},
    {{0xffff, 0xffff, 0xffff}, {0xffff, 0xffff, 0xffff}, {0xffff, 0xffff, 0xffff}},
    {{0xffff, 0xffff, 0xffff}, {0xffff, 0xffff, 0xffff}, {0xffff, 0xffff, 0xffff}},
    {{0xffff, 0xffff, 0xffff}, {0xffff, 0xffff, 0xffff}, {0xffff, 0xffff, 0xffff}},
    {{0xffff, 0xffff, 0xffff}, {0xffff, 0xffff, 0xffff}, {0xffff, 0xffff, 0xffff}},
    {{0xffff, 0xffff, 0xffff}, {0xffff, 0xffff, 0xffff}, {0xffff, 0xffff, 0xffff}}
};

const FIX_WT layer1_2_conv1_threshold[16] = {
      0x3fff, 0x3fff, 0x3fff, 0x3fff, 0x3fff, 0x3fff, 0x3fff, 0x3fff,
      0x3fff, 0x3fff, 0x3fff, 0x3fff, 0x3fff, 0x3fff, 0x3fff, 0x3fff
};

const FIX_WT layer1_2_bn1_weight[16] = {
      0x3fff, 0x3fff, 0x3fff, 0x3fff, 0x3fff, 0x3fff, 0x3fff, 0x3fff,
      0x3fff, 0x3fff, 0x3fff, 0x3fff, 0x3fff, 0x3fff, 0x3fff, 0x3fff
};

const FIX_WT layer1_2_bn1_bias[16] = {
      0x3fff, 0x3fff, 0x3fff, 0x3fff, 0x3fff, 0x3fff, 0x3fff, 0x3fff,
      0x3fff, 0x3fff, 0x3fff, 0x3fff, 0x3fff, 0x3fff, 0x3fff, 0x3fff
};

const FIX_WT layer1_2_bn1_running_mean[16] = {
      0x3fff, 0x3fff, 0x3fff, 0x3fff, 0x3fff, 0x3fff, 0x3fff, 0x3fff,
      0x3fff, 0x3fff, 0x3fff, 0x3fff, 0x3fff, 0x3fff, 0x3fff, 0x3fff
};

const FIX_WT layer1_2_bn1_running_var[16] = {
      0x3fff, 0x3fff, 0x3fff, 0x3fff, 0x3fff, 0x3fff, 0x3fff, 0x3fff,
      0x3fff, 0x3fff, 0x3fff, 0x3fff, 0x3fff, 0x3fff, 0x3fff, 0x3fff
};

const uint64 layer1_2_conv2_weight[16][3][3] = {
    {{0xffff, 0xffff, 0xffff}, {0xffff, 0xffff, 0xffff}, {0xffff, 0xffff, 0xffff}},
    {{0xffff, 0xffff, 0xffff}, {0xffff, 0xffff, 0xffff}, {0xffff, 0xffff, 0xffff}},
    {{0xffff, 0xffff, 0xffff}, {0xffff, 0xffff, 0xffff}, {0xffff, 0xffff, 0xffff}},
    {{0xffff, 0xffff, 0xffff}, {0xffff, 0xffff, 0xffff}, {0xffff, 0xffff, 0xffff}},
    {{0xffff, 0xffff, 0xffff}, {0xffff, 0xffff, 0xffff}, {0xffff, 0xffff, 0xffff}},
    {{0xffff, 0xffff, 0xffff}, {0xffff, 0xffff, 0xffff}, {0xffff, 0xffff, 0xffff}},
    {{0xffff, 0xffff, 0xffff}, {0xffff, 0xffff, 0xffff}, {0xffff, 0xffff, 0xffff}},
    {{0xffff, 0xffff, 0xffff}, {0xffff, 0xffff, 0xffff}, {0xffff, 0xffff, 0xffff}},
    {{0xffff, 0xffff, 0xffff}, {0xffff, 0xffff, 0xffff}, {0xffff, 0xffff, 0xffff}},
    {{0xffff, 0xffff, 0xffff}, {0xffff, 0xffff, 0xffff}, {0xffff, 0xffff, 0xffff}},
    {{0xffff, 0xffff, 0xffff}, {0xffff, 0xffff, 0xffff}, {0xffff, 0xffff, 0xffff}},
    {{0xffff, 0xffff, 0xffff}, {0xffff, 0xffff, 0xffff}, {0xffff, 0xffff, 0xffff}},
    {{0xffff, 0xffff, 0xffff}, {0xffff, 0xffff, 0xffff}, {0xffff, 0xffff, 0xffff}},
    {{0xffff, 0xffff, 0xffff}, {0xffff, 0xffff, 0xffff}, {0xffff, 0xffff, 0xffff}},
    {{0xffff, 0xffff, 0xffff}, {0xffff, 0xffff, 0xffff}, {0xffff, 0xffff, 0xffff}},
    {{0xffff, 0xffff, 0xffff}, {0xffff, 0xffff, 0xffff}, {0xffff, 0xffff, 0xffff}}
};

const FIX_WT layer1_2_conv2_threshold[16] = {
      0x3fff, 0x3fff, 0x3fff, 0x3fff, 0x3fff, 0x3fff, 0x3fff, 0x3fff,
      0x3fff, 0x3fff, 0x3fff, 0x3fff, 0x3fff, 0x3fff, 0x3fff, 0x3fff
};

const FIX_WT layer1_2_bn2_weight[16] = {
      0x3fff, 0x3fff, 0x3fff, 0x3fff, 0x3fff, 0x3fff, 0x3fff, 0x3fff,
      0x3fff, 0x3fff, 0x3fff, 0x3fff, 0x3fff, 0x3fff, 0x3fff, 0x3fff
};

const FIX_WT layer1_2_bn2_bias[16] = {
      0x3fff, 0x3fff, 0x3fff, 0x3fff, 0x3fff, 0x3fff, 0x3fff, 0x3fff,
      0x3fff, 0x3fff, 0x3fff, 0x3fff, 0x3fff, 0x3fff, 0x3fff, 0x3fff
};

const FIX_WT layer1_2_bn2_running_mean[16] = {
      0x3fff, 0x3fff, 0x3fff, 0x3fff, 0x3fff, 0x3fff, 0x3fff, 0x3fff,
      0x3fff, 0x3fff, 0x3fff, 0x3fff, 0x3fff, 0x3fff, 0x3fff, 0x3fff
};

const FIX_WT layer1_2_bn2_running_var[16] = {
      0x3fff, 0x3fff, 0x3fff, 0x3fff, 0x3fff, 0x3fff, 0x3fff, 0x3fff,
      0x3fff, 0x3fff, 0x3fff, 0x3fff, 0x3fff, 0x3fff, 0x3fff, 0x3fff
};

const FIX_WT layer1_2_bn3_weight[16] = {
      0x3fff, 0x3fff, 0x3fff, 0x3fff, 0x3fff, 0x3fff, 0x3fff, 0x3fff,
      0x3fff, 0x3fff, 0x3fff, 0x3fff, 0x3fff, 0x3fff, 0x3fff, 0x3fff
};

const FIX_WT layer1_2_bn3_bias[16] = {
      0x3fff, 0x3fff, 0x3fff, 0x3fff, 0x3fff, 0x3fff, 0x3fff, 0x3fff,
      0x3fff, 0x3fff, 0x3fff, 0x3fff, 0x3fff, 0x3fff, 0x3fff, 0x3fff
};

const FIX_WT layer1_2_bn3_running_mean[16] = {
      0x3fff, 0x3fff, 0x3fff, 0x3fff, 0x3fff, 0x3fff, 0x3fff, 0x3fff,
      0x3fff, 0x3fff, 0x3fff, 0x3fff, 0x3fff, 0x3fff, 0x3fff, 0x3fff
};

const FIX_WT layer1_2_bn3_running_var[16] = {
      0x3fff, 0x3fff, 0x3fff, 0x3fff, 0x3fff, 0x3fff, 0x3fff, 0x3fff,
      0x3fff, 0x3fff, 0x3fff, 0x3fff, 0x3fff, 0x3fff, 0x3fff, 0x3fff
};

const FIX_WT layer1_2_bn4_weight[16] = {
      0x3fff, 0x3fff, 0x3fff, 0x3fff, 0x3fff, 0x3fff, 0x3fff, 0x3fff,
      0x3fff, 0x3fff, 0x3fff, 0x3fff, 0x3fff, 0x3fff, 0x3fff, 0x3fff
};

const FIX_WT layer1_2_bn4_bias[16] = {
      0x3fff, 0x3fff, 0x3fff, 0x3fff, 0x3fff, 0x3fff, 0x3fff, 0x3fff,
      0x3fff, 0x3fff, 0x3fff, 0x3fff, 0x3fff, 0x3fff, 0x3fff, 0x3fff
};

const FIX_WT layer1_2_bn4_running_mean[16] = {
      0x3fff, 0x3fff, 0x3fff, 0x3fff, 0x3fff, 0x3fff, 0x3fff, 0x3fff,
      0x3fff, 0x3fff, 0x3fff, 0x3fff, 0x3fff, 0x3fff, 0x3fff, 0x3fff
};

const FIX_WT layer1_2_bn4_running_var[16] = {
      0x3fff, 0x3fff, 0x3fff, 0x3fff, 0x3fff, 0x3fff, 0x3fff, 0x3fff,
      0x3fff, 0x3fff, 0x3fff, 0x3fff, 0x3fff, 0x3fff, 0x3fff, 0x3fff
};

const FIX_WT layer2_0_rprelu1_shift_x_bias[32] = {
      0x3fff, 0x3fff, 0x3fff, 0x3fff, 0x3fff, 0x3fff, 0x3fff, 0x3fff,
      0x3fff, 0x3fff, 0x3fff, 0x3fff, 0x3fff, 0x3fff, 0x3fff, 0x3fff,
      0x3fff, 0x3fff, 0x3fff, 0x3fff, 0x3fff, 0x3fff, 0x3fff, 0x3fff,
      0x3fff, 0x3fff, 0x3fff, 0x3fff, 0x3fff, 0x3fff, 0x3fff, 0x3fff
};

const FIX_WT layer2_0_rprelu1_shift_y_bias[32] = {
      0x3fff, 0x3fff, 0x3fff, 0x3fff, 0x3fff, 0x3fff, 0x3fff, 0x3fff,
      0x3fff, 0x3fff, 0x3fff, 0x3fff, 0x3fff, 0x3fff, 0x3fff, 0x3fff,
      0x3fff, 0x3fff, 0x3fff, 0x3fff, 0x3fff, 0x3fff, 0x3fff, 0x3fff,
      0x3fff, 0x3fff, 0x3fff, 0x3fff, 0x3fff, 0x3fff, 0x3fff, 0x3fff
};

const FIX_WT layer2_0_rprelu1_prelu_weight[32] = {
      0x3fff, 0x3fff, 0x3fff, 0x3fff, 0x3fff, 0x3fff, 0x3fff, 0x3fff,
      0x3fff, 0x3fff, 0x3fff, 0x3fff, 0x3fff, 0x3fff, 0x3fff, 0x3fff,
      0x3fff, 0x3fff, 0x3fff, 0x3fff, 0x3fff, 0x3fff, 0x3fff, 0x3fff,
      0x3fff, 0x3fff, 0x3fff, 0x3fff, 0x3fff, 0x3fff, 0x3fff, 0x3fff
};

const FIX_WT layer2_0_rprelu2_shift_x_bias[32] = {
      0x3fff, 0x3fff, 0x3fff, 0x3fff, 0x3fff, 0x3fff, 0x3fff, 0x3fff,
      0x3fff, 0x3fff, 0x3fff, 0x3fff, 0x3fff, 0x3fff, 0x3fff, 0x3fff,
      0x3fff, 0x3fff, 0x3fff, 0x3fff, 0x3fff, 0x3fff, 0x3fff, 0x3fff,
      0x3fff, 0x3fff, 0x3fff, 0x3fff, 0x3fff, 0x3fff, 0x3fff, 0x3fff
};

const FIX_WT layer2_0_rprelu2_shift_y_bias[32] = {
      0x3fff, 0x3fff, 0x3fff, 0x3fff, 0x3fff, 0x3fff, 0x3fff, 0x3fff,
      0x3fff, 0x3fff, 0x3fff, 0x3fff, 0x3fff, 0x3fff, 0x3fff, 0x3fff,
      0x3fff, 0x3fff, 0x3fff, 0x3fff, 0x3fff, 0x3fff, 0x3fff, 0x3fff,
      0x3fff, 0x3fff, 0x3fff, 0x3fff, 0x3fff, 0x3fff, 0x3fff, 0x3fff
};

const FIX_WT layer2_0_rprelu2_prelu_weight[32] = {
      0x3fff, 0x3fff, 0x3fff, 0x3fff, 0x3fff, 0x3fff, 0x3fff, 0x3fff,
      0x3fff, 0x3fff, 0x3fff, 0x3fff, 0x3fff, 0x3fff, 0x3fff, 0x3fff,
      0x3fff, 0x3fff, 0x3fff, 0x3fff, 0x3fff, 0x3fff, 0x3fff, 0x3fff,
      0x3fff, 0x3fff, 0x3fff, 0x3fff, 0x3fff, 0x3fff, 0x3fff, 0x3fff
};

const uint64 layer2_0_conv1_weight[32][3][3] = {
    {{0xffff, 0xffff, 0xffff}, {0xffff, 0xffff, 0xffff}, {0xffff, 0xffff, 0xffff}},
    {{0xffff, 0xffff, 0xffff}, {0xffff, 0xffff, 0xffff}, {0xffff, 0xffff, 0xffff}},
    {{0xffff, 0xffff, 0xffff}, {0xffff, 0xffff, 0xffff}, {0xffff, 0xffff, 0xffff}},
    {{0xffff, 0xffff, 0xffff}, {0xffff, 0xffff, 0xffff}, {0xffff, 0xffff, 0xffff}},
    {{0xffff, 0xffff, 0xffff}, {0xffff, 0xffff, 0xffff}, {0xffff, 0xffff, 0xffff}},
    {{0xffff, 0xffff, 0xffff}, {0xffff, 0xffff, 0xffff}, {0xffff, 0xffff, 0xffff}},
    {{0xffff, 0xffff, 0xffff}, {0xffff, 0xffff, 0xffff}, {0xffff, 0xffff, 0xffff}},
    {{0xffff, 0xffff, 0xffff}, {0xffff, 0xffff, 0xffff}, {0xffff, 0xffff, 0xffff}},
    {{0xffff, 0xffff, 0xffff}, {0xffff, 0xffff, 0xffff}, {0xffff, 0xffff, 0xffff}},
    {{0xffff, 0xffff, 0xffff}, {0xffff, 0xffff, 0xffff}, {0xffff, 0xffff, 0xffff}},
    {{0xffff, 0xffff, 0xffff}, {0xffff, 0xffff, 0xffff}, {0xffff, 0xffff, 0xffff}},
    {{0xffff, 0xffff, 0xffff}, {0xffff, 0xffff, 0xffff}, {0xffff, 0xffff, 0xffff}},
    {{0xffff, 0xffff, 0xffff}, {0xffff, 0xffff, 0xffff}, {0xffff, 0xffff, 0xffff}},
    {{0xffff, 0xffff, 0xffff}, {0xffff, 0xffff, 0xffff}, {0xffff, 0xffff, 0xffff}},
    {{0xffff, 0xffff, 0xffff}, {0xffff, 0xffff, 0xffff}, {0xffff, 0xffff, 0xffff}},
    {{0xffff, 0xffff, 0xffff}, {0xffff, 0xffff, 0xffff}, {0xffff, 0xffff, 0xffff}}
};

const FIX_WT layer2_0_conv1_threshold[32] = {
      0x3fff, 0x3fff, 0x3fff, 0x3fff, 0x3fff, 0x3fff, 0x3fff, 0x3fff,
      0x3fff, 0x3fff, 0x3fff, 0x3fff, 0x3fff, 0x3fff, 0x3fff, 0x3fff,
      0x3fff, 0x3fff, 0x3fff, 0x3fff, 0x3fff, 0x3fff, 0x3fff, 0x3fff,
      0x3fff, 0x3fff, 0x3fff, 0x3fff, 0x3fff, 0x3fff, 0x3fff, 0x3fff
};

const FIX_WT layer2_0_bn1_weight[32] = {
      0x3fff, 0x3fff, 0x3fff, 0x3fff, 0x3fff, 0x3fff, 0x3fff, 0x3fff,
      0x3fff, 0x3fff, 0x3fff, 0x3fff, 0x3fff, 0x3fff, 0x3fff, 0x3fff,
      0x3fff, 0x3fff, 0x3fff, 0x3fff, 0x3fff, 0x3fff, 0x3fff, 0x3fff,
      0x3fff, 0x3fff, 0x3fff, 0x3fff, 0x3fff, 0x3fff, 0x3fff, 0x3fff
};

const FIX_WT layer2_0_bn1_bias[32] = {
      0x3fff, 0x3fff, 0x3fff, 0x3fff, 0x3fff, 0x3fff, 0x3fff, 0x3fff,
      0x3fff, 0x3fff, 0x3fff, 0x3fff, 0x3fff, 0x3fff, 0x3fff, 0x3fff,
      0x3fff, 0x3fff, 0x3fff, 0x3fff, 0x3fff, 0x3fff, 0x3fff, 0x3fff,
      0x3fff, 0x3fff, 0x3fff, 0x3fff, 0x3fff, 0x3fff, 0x3fff, 0x3fff
};

const FIX_WT layer2_0_bn1_running_mean[32] = {
      0x3fff, 0x3fff, 0x3fff, 0x3fff, 0x3fff, 0x3fff, 0x3fff, 0x3fff,
      0x3fff, 0x3fff, 0x3fff, 0x3fff, 0x3fff, 0x3fff, 0x3fff, 0x3fff,
      0x3fff, 0x3fff, 0x3fff, 0x3fff, 0x3fff, 0x3fff, 0x3fff, 0x3fff,
      0x3fff, 0x3fff, 0x3fff, 0x3fff, 0x3fff, 0x3fff, 0x3fff, 0x3fff
};

const FIX_WT layer2_0_bn1_running_var[32] = {
      0x3fff, 0x3fff, 0x3fff, 0x3fff, 0x3fff, 0x3fff, 0x3fff, 0x3fff,
      0x3fff, 0x3fff, 0x3fff, 0x3fff, 0x3fff, 0x3fff, 0x3fff, 0x3fff,
      0x3fff, 0x3fff, 0x3fff, 0x3fff, 0x3fff, 0x3fff, 0x3fff, 0x3fff,
      0x3fff, 0x3fff, 0x3fff, 0x3fff, 0x3fff, 0x3fff, 0x3fff, 0x3fff
};

const uint64 layer2_0_conv2_weight[32][3][3] = {
    {{0xffffffff, 0xffffffff, 0xffffffff}, {0xffffffff, 0xffffffff, 0xffffffff}, {0xffffffff, 0xffffffff, 0xffffffff}},
    {{0xffffffff, 0xffffffff, 0xffffffff}, {0xffffffff, 0xffffffff, 0xffffffff}, {0xffffffff, 0xffffffff, 0xffffffff}},
    {{0xffffffff, 0xffffffff, 0xffffffff}, {0xffffffff, 0xffffffff, 0xffffffff}, {0xffffffff, 0xffffffff, 0xffffffff}},
    {{0xffffffff, 0xffffffff, 0xffffffff}, {0xffffffff, 0xffffffff, 0xffffffff}, {0xffffffff, 0xffffffff, 0xffffffff}},
    {{0xffffffff, 0xffffffff, 0xffffffff}, {0xffffffff, 0xffffffff, 0xffffffff}, {0xffffffff, 0xffffffff, 0xffffffff}},
    {{0xffffffff, 0xffffffff, 0xffffffff}, {0xffffffff, 0xffffffff, 0xffffffff}, {0xffffffff, 0xffffffff, 0xffffffff}},
    {{0xffffffff, 0xffffffff, 0xffffffff}, {0xffffffff, 0xffffffff, 0xffffffff}, {0xffffffff, 0xffffffff, 0xffffffff}},
    {{0xffffffff, 0xffffffff, 0xffffffff}, {0xffffffff, 0xffffffff, 0xffffffff}, {0xffffffff, 0xffffffff, 0xffffffff}},
    {{0xffffffff, 0xffffffff, 0xffffffff}, {0xffffffff, 0xffffffff, 0xffffffff}, {0xffffffff, 0xffffffff, 0xffffffff}},
    {{0xffffffff, 0xffffffff, 0xffffffff}, {0xffffffff, 0xffffffff, 0xffffffff}, {0xffffffff, 0xffffffff, 0xffffffff}},
    {{0xffffffff, 0xffffffff, 0xffffffff}, {0xffffffff, 0xffffffff, 0xffffffff}, {0xffffffff, 0xffffffff, 0xffffffff}},
    {{0xffffffff, 0xffffffff, 0xffffffff}, {0xffffffff, 0xffffffff, 0xffffffff}, {0xffffffff, 0xffffffff, 0xffffffff}},
    {{0xffffffff, 0xffffffff, 0xffffffff}, {0xffffffff, 0xffffffff, 0xffffffff}, {0xffffffff, 0xffffffff, 0xffffffff}},
    {{0xffffffff, 0xffffffff, 0xffffffff}, {0xffffffff, 0xffffffff, 0xffffffff}, {0xffffffff, 0xffffffff, 0xffffffff}},
    {{0xffffffff, 0xffffffff, 0xffffffff}, {0xffffffff, 0xffffffff, 0xffffffff}, {0xffffffff, 0xffffffff, 0xffffffff}},
    {{0xffffffff, 0xffffffff, 0xffffffff}, {0xffffffff, 0xffffffff, 0xffffffff}, {0xffffffff, 0xffffffff, 0xffffffff}},
    {{0xffffffff, 0xffffffff, 0xffffffff}, {0xffffffff, 0xffffffff, 0xffffffff}, {0xffffffff, 0xffffffff, 0xffffffff}},
    {{0xffffffff, 0xffffffff, 0xffffffff}, {0xffffffff, 0xffffffff, 0xffffffff}, {0xffffffff, 0xffffffff, 0xffffffff}},
    {{0xffffffff, 0xffffffff, 0xffffffff}, {0xffffffff, 0xffffffff, 0xffffffff}, {0xffffffff, 0xffffffff, 0xffffffff}},
    {{0xffffffff, 0xffffffff, 0xffffffff}, {0xffffffff, 0xffffffff, 0xffffffff}, {0xffffffff, 0xffffffff, 0xffffffff}},
    {{0xffffffff, 0xffffffff, 0xffffffff}, {0xffffffff, 0xffffffff, 0xffffffff}, {0xffffffff, 0xffffffff, 0xffffffff}},
    {{0xffffffff, 0xffffffff, 0xffffffff}, {0xffffffff, 0xffffffff, 0xffffffff}, {0xffffffff, 0xffffffff, 0xffffffff}},
    {{0xffffffff, 0xffffffff, 0xffffffff}, {0xffffffff, 0xffffffff, 0xffffffff}, {0xffffffff, 0xffffffff, 0xffffffff}},
    {{0xffffffff, 0xffffffff, 0xffffffff}, {0xffffffff, 0xffffffff, 0xffffffff}, {0xffffffff, 0xffffffff, 0xffffffff}},
    {{0xffffffff, 0xffffffff, 0xffffffff}, {0xffffffff, 0xffffffff, 0xffffffff}, {0xffffffff, 0xffffffff, 0xffffffff}},
    {{0xffffffff, 0xffffffff, 0xffffffff}, {0xffffffff, 0xffffffff, 0xffffffff}, {0xffffffff, 0xffffffff, 0xffffffff}},
    {{0xffffffff, 0xffffffff, 0xffffffff}, {0xffffffff, 0xffffffff, 0xffffffff}, {0xffffffff, 0xffffffff, 0xffffffff}},
    {{0xffffffff, 0xffffffff, 0xffffffff}, {0xffffffff, 0xffffffff, 0xffffffff}, {0xffffffff, 0xffffffff, 0xffffffff}},
    {{0xffffffff, 0xffffffff, 0xffffffff}, {0xffffffff, 0xffffffff, 0xffffffff}, {0xffffffff, 0xffffffff, 0xffffffff}},
    {{0xffffffff, 0xffffffff, 0xffffffff}, {0xffffffff, 0xffffffff, 0xffffffff}, {0xffffffff, 0xffffffff, 0xffffffff}},
    {{0xffffffff, 0xffffffff, 0xffffffff}, {0xffffffff, 0xffffffff, 0xffffffff}, {0xffffffff, 0xffffffff, 0xffffffff}},
    {{0xffffffff, 0xffffffff, 0xffffffff}, {0xffffffff, 0xffffffff, 0xffffffff}, {0xffffffff, 0xffffffff, 0xffffffff}}
};

const FIX_WT layer2_0_conv2_threshold[32] = {
      0x3fff, 0x3fff, 0x3fff, 0x3fff, 0x3fff, 0x3fff, 0x3fff, 0x3fff,
      0x3fff, 0x3fff, 0x3fff, 0x3fff, 0x3fff, 0x3fff, 0x3fff, 0x3fff,
      0x3fff, 0x3fff, 0x3fff, 0x3fff, 0x3fff, 0x3fff, 0x3fff, 0x3fff,
      0x3fff, 0x3fff, 0x3fff, 0x3fff, 0x3fff, 0x3fff, 0x3fff, 0x3fff
};

const FIX_WT layer2_0_bn2_weight[32] = {
      0x3fff, 0x3fff, 0x3fff, 0x3fff, 0x3fff, 0x3fff, 0x3fff, 0x3fff,
      0x3fff, 0x3fff, 0x3fff, 0x3fff, 0x3fff, 0x3fff, 0x3fff, 0x3fff,
      0x3fff, 0x3fff, 0x3fff, 0x3fff, 0x3fff, 0x3fff, 0x3fff, 0x3fff,
      0x3fff, 0x3fff, 0x3fff, 0x3fff, 0x3fff, 0x3fff, 0x3fff, 0x3fff
};

const FIX_WT layer2_0_bn2_bias[32] = {
      0x3fff, 0x3fff, 0x3fff, 0x3fff, 0x3fff, 0x3fff, 0x3fff, 0x3fff,
      0x3fff, 0x3fff, 0x3fff, 0x3fff, 0x3fff, 0x3fff, 0x3fff, 0x3fff,
      0x3fff, 0x3fff, 0x3fff, 0x3fff, 0x3fff, 0x3fff, 0x3fff, 0x3fff,
      0x3fff, 0x3fff, 0x3fff, 0x3fff, 0x3fff, 0x3fff, 0x3fff, 0x3fff
};

const FIX_WT layer2_0_bn2_running_mean[32] = {
      0x3fff, 0x3fff, 0x3fff, 0x3fff, 0x3fff, 0x3fff, 0x3fff, 0x3fff,
      0x3fff, 0x3fff, 0x3fff, 0x3fff, 0x3fff, 0x3fff, 0x3fff, 0x3fff,
      0x3fff, 0x3fff, 0x3fff, 0x3fff, 0x3fff, 0x3fff, 0x3fff, 0x3fff,
      0x3fff, 0x3fff, 0x3fff, 0x3fff, 0x3fff, 0x3fff, 0x3fff, 0x3fff
};

const FIX_WT layer2_0_bn2_running_var[32] = {
      0x3fff, 0x3fff, 0x3fff, 0x3fff, 0x3fff, 0x3fff, 0x3fff, 0x3fff,
      0x3fff, 0x3fff, 0x3fff, 0x3fff, 0x3fff, 0x3fff, 0x3fff, 0x3fff,
      0x3fff, 0x3fff, 0x3fff, 0x3fff, 0x3fff, 0x3fff, 0x3fff, 0x3fff,
      0x3fff, 0x3fff, 0x3fff, 0x3fff, 0x3fff, 0x3fff, 0x3fff, 0x3fff
};

const FIX_WT layer2_0_bn3_weight[32] = {
      0x3fff, 0x3fff, 0x3fff, 0x3fff, 0x3fff, 0x3fff, 0x3fff, 0x3fff,
      0x3fff, 0x3fff, 0x3fff, 0x3fff, 0x3fff, 0x3fff, 0x3fff, 0x3fff,
      0x3fff, 0x3fff, 0x3fff, 0x3fff, 0x3fff, 0x3fff, 0x3fff, 0x3fff,
      0x3fff, 0x3fff, 0x3fff, 0x3fff, 0x3fff, 0x3fff, 0x3fff, 0x3fff
};

const FIX_WT layer2_0_bn3_bias[32] = {
      0x3fff, 0x3fff, 0x3fff, 0x3fff, 0x3fff, 0x3fff, 0x3fff, 0x3fff,
      0x3fff, 0x3fff, 0x3fff, 0x3fff, 0x3fff, 0x3fff, 0x3fff, 0x3fff,
      0x3fff, 0x3fff, 0x3fff, 0x3fff, 0x3fff, 0x3fff, 0x3fff, 0x3fff,
      0x3fff, 0x3fff, 0x3fff, 0x3fff, 0x3fff, 0x3fff, 0x3fff, 0x3fff
};

const FIX_WT layer2_0_bn3_running_mean[32] = {
      0x3fff, 0x3fff, 0x3fff, 0x3fff, 0x3fff, 0x3fff, 0x3fff, 0x3fff,
      0x3fff, 0x3fff, 0x3fff, 0x3fff, 0x3fff, 0x3fff, 0x3fff, 0x3fff,
      0x3fff, 0x3fff, 0x3fff, 0x3fff, 0x3fff, 0x3fff, 0x3fff, 0x3fff,
      0x3fff, 0x3fff, 0x3fff, 0x3fff, 0x3fff, 0x3fff, 0x3fff, 0x3fff
};

const FIX_WT layer2_0_bn3_running_var[32] = {
      0x3fff, 0x3fff, 0x3fff, 0x3fff, 0x3fff, 0x3fff, 0x3fff, 0x3fff,
      0x3fff, 0x3fff, 0x3fff, 0x3fff, 0x3fff, 0x3fff, 0x3fff, 0x3fff,
      0x3fff, 0x3fff, 0x3fff, 0x3fff, 0x3fff, 0x3fff, 0x3fff, 0x3fff,
      0x3fff, 0x3fff, 0x3fff, 0x3fff, 0x3fff, 0x3fff, 0x3fff, 0x3fff
};

const FIX_WT layer2_0_bn4_weight[32] = {
      0x3fff, 0x3fff, 0x3fff, 0x3fff, 0x3fff, 0x3fff, 0x3fff, 0x3fff,
      0x3fff, 0x3fff, 0x3fff, 0x3fff, 0x3fff, 0x3fff, 0x3fff, 0x3fff,
      0x3fff, 0x3fff, 0x3fff, 0x3fff, 0x3fff, 0x3fff, 0x3fff, 0x3fff,
      0x3fff, 0x3fff, 0x3fff, 0x3fff, 0x3fff, 0x3fff, 0x3fff, 0x3fff
};

const FIX_WT layer2_0_bn4_bias[32] = {
      0x3fff, 0x3fff, 0x3fff, 0x3fff, 0x3fff, 0x3fff, 0x3fff, 0x3fff,
      0x3fff, 0x3fff, 0x3fff, 0x3fff, 0x3fff, 0x3fff, 0x3fff, 0x3fff,
      0x3fff, 0x3fff, 0x3fff, 0x3fff, 0x3fff, 0x3fff, 0x3fff, 0x3fff,
      0x3fff, 0x3fff, 0x3fff, 0x3fff, 0x3fff, 0x3fff, 0x3fff, 0x3fff
};

const FIX_WT layer2_0_bn4_running_mean[32] = {
      0x3fff, 0x3fff, 0x3fff, 0x3fff, 0x3fff, 0x3fff, 0x3fff, 0x3fff,
      0x3fff, 0x3fff, 0x3fff, 0x3fff, 0x3fff, 0x3fff, 0x3fff, 0x3fff,
      0x3fff, 0x3fff, 0x3fff, 0x3fff, 0x3fff, 0x3fff, 0x3fff, 0x3fff,
      0x3fff, 0x3fff, 0x3fff, 0x3fff, 0x3fff, 0x3fff, 0x3fff, 0x3fff
};

const FIX_WT layer2_0_bn4_running_var[32] = {
      0x3fff, 0x3fff, 0x3fff, 0x3fff, 0x3fff, 0x3fff, 0x3fff, 0x3fff,
      0x3fff, 0x3fff, 0x3fff, 0x3fff, 0x3fff, 0x3fff, 0x3fff, 0x3fff,
      0x3fff, 0x3fff, 0x3fff, 0x3fff, 0x3fff, 0x3fff, 0x3fff, 0x3fff,
      0x3fff, 0x3fff, 0x3fff, 0x3fff, 0x3fff, 0x3fff, 0x3fff, 0x3fff
};

const FIX_WT layer2_1_rprelu1_shift_x_bias[32] = {
      0x3fff, 0x3fff, 0x3fff, 0x3fff, 0x3fff, 0x3fff, 0x3fff, 0x3fff,
      0x3fff, 0x3fff, 0x3fff, 0x3fff, 0x3fff, 0x3fff, 0x3fff, 0x3fff,
      0x3fff, 0x3fff, 0x3fff, 0x3fff, 0x3fff, 0x3fff, 0x3fff, 0x3fff,
      0x3fff, 0x3fff, 0x3fff, 0x3fff, 0x3fff, 0x3fff, 0x3fff, 0x3fff
};

const FIX_WT layer2_1_rprelu1_shift_y_bias[32] = {
      0x3fff, 0x3fff, 0x3fff, 0x3fff, 0x3fff, 0x3fff, 0x3fff, 0x3fff,
      0x3fff, 0x3fff, 0x3fff, 0x3fff, 0x3fff, 0x3fff, 0x3fff, 0x3fff,
      0x3fff, 0x3fff, 0x3fff, 0x3fff, 0x3fff, 0x3fff, 0x3fff, 0x3fff,
      0x3fff, 0x3fff, 0x3fff, 0x3fff, 0x3fff, 0x3fff, 0x3fff, 0x3fff
};

const FIX_WT layer2_1_rprelu1_prelu_weight[32] = {
      0x3fff, 0x3fff, 0x3fff, 0x3fff, 0x3fff, 0x3fff, 0x3fff, 0x3fff,
      0x3fff, 0x3fff, 0x3fff, 0x3fff, 0x3fff, 0x3fff, 0x3fff, 0x3fff,
      0x3fff, 0x3fff, 0x3fff, 0x3fff, 0x3fff, 0x3fff, 0x3fff, 0x3fff,
      0x3fff, 0x3fff, 0x3fff, 0x3fff, 0x3fff, 0x3fff, 0x3fff, 0x3fff
};

const FIX_WT layer2_1_rprelu2_shift_x_bias[32] = {
      0x3fff, 0x3fff, 0x3fff, 0x3fff, 0x3fff, 0x3fff, 0x3fff, 0x3fff,
      0x3fff, 0x3fff, 0x3fff, 0x3fff, 0x3fff, 0x3fff, 0x3fff, 0x3fff,
      0x3fff, 0x3fff, 0x3fff, 0x3fff, 0x3fff, 0x3fff, 0x3fff, 0x3fff,
      0x3fff, 0x3fff, 0x3fff, 0x3fff, 0x3fff, 0x3fff, 0x3fff, 0x3fff
};

const FIX_WT layer2_1_rprelu2_shift_y_bias[32] = {
      0x3fff, 0x3fff, 0x3fff, 0x3fff, 0x3fff, 0x3fff, 0x3fff, 0x3fff,
      0x3fff, 0x3fff, 0x3fff, 0x3fff, 0x3fff, 0x3fff, 0x3fff, 0x3fff,
      0x3fff, 0x3fff, 0x3fff, 0x3fff, 0x3fff, 0x3fff, 0x3fff, 0x3fff,
      0x3fff, 0x3fff, 0x3fff, 0x3fff, 0x3fff, 0x3fff, 0x3fff, 0x3fff
};

const FIX_WT layer2_1_rprelu2_prelu_weight[32] = {
      0x3fff, 0x3fff, 0x3fff, 0x3fff, 0x3fff, 0x3fff, 0x3fff, 0x3fff,
      0x3fff, 0x3fff, 0x3fff, 0x3fff, 0x3fff, 0x3fff, 0x3fff, 0x3fff,
      0x3fff, 0x3fff, 0x3fff, 0x3fff, 0x3fff, 0x3fff, 0x3fff, 0x3fff,
      0x3fff, 0x3fff, 0x3fff, 0x3fff, 0x3fff, 0x3fff, 0x3fff, 0x3fff
};

const uint64 layer2_1_conv1_weight[32][3][3] = {
    {{0xffffffff, 0xffffffff, 0xffffffff}, {0xffffffff, 0xffffffff, 0xffffffff}, {0xffffffff, 0xffffffff, 0xffffffff}},
    {{0xffffffff, 0xffffffff, 0xffffffff}, {0xffffffff, 0xffffffff, 0xffffffff}, {0xffffffff, 0xffffffff, 0xffffffff}},
    {{0xffffffff, 0xffffffff, 0xffffffff}, {0xffffffff, 0xffffffff, 0xffffffff}, {0xffffffff, 0xffffffff, 0xffffffff}},
    {{0xffffffff, 0xffffffff, 0xffffffff}, {0xffffffff, 0xffffffff, 0xffffffff}, {0xffffffff, 0xffffffff, 0xffffffff}},
    {{0xffffffff, 0xffffffff, 0xffffffff}, {0xffffffff, 0xffffffff, 0xffffffff}, {0xffffffff, 0xffffffff, 0xffffffff}},
    {{0xffffffff, 0xffffffff, 0xffffffff}, {0xffffffff, 0xffffffff, 0xffffffff}, {0xffffffff, 0xffffffff, 0xffffffff}},
    {{0xffffffff, 0xffffffff, 0xffffffff}, {0xffffffff, 0xffffffff, 0xffffffff}, {0xffffffff, 0xffffffff, 0xffffffff}},
    {{0xffffffff, 0xffffffff, 0xffffffff}, {0xffffffff, 0xffffffff, 0xffffffff}, {0xffffffff, 0xffffffff, 0xffffffff}},
    {{0xffffffff, 0xffffffff, 0xffffffff}, {0xffffffff, 0xffffffff, 0xffffffff}, {0xffffffff, 0xffffffff, 0xffffffff}},
    {{0xffffffff, 0xffffffff, 0xffffffff}, {0xffffffff, 0xffffffff, 0xffffffff}, {0xffffffff, 0xffffffff, 0xffffffff}},
    {{0xffffffff, 0xffffffff, 0xffffffff}, {0xffffffff, 0xffffffff, 0xffffffff}, {0xffffffff, 0xffffffff, 0xffffffff}},
    {{0xffffffff, 0xffffffff, 0xffffffff}, {0xffffffff, 0xffffffff, 0xffffffff}, {0xffffffff, 0xffffffff, 0xffffffff}},
    {{0xffffffff, 0xffffffff, 0xffffffff}, {0xffffffff, 0xffffffff, 0xffffffff}, {0xffffffff, 0xffffffff, 0xffffffff}},
    {{0xffffffff, 0xffffffff, 0xffffffff}, {0xffffffff, 0xffffffff, 0xffffffff}, {0xffffffff, 0xffffffff, 0xffffffff}},
    {{0xffffffff, 0xffffffff, 0xffffffff}, {0xffffffff, 0xffffffff, 0xffffffff}, {0xffffffff, 0xffffffff, 0xffffffff}},
    {{0xffffffff, 0xffffffff, 0xffffffff}, {0xffffffff, 0xffffffff, 0xffffffff}, {0xffffffff, 0xffffffff, 0xffffffff}},
    {{0xffffffff, 0xffffffff, 0xffffffff}, {0xffffffff, 0xffffffff, 0xffffffff}, {0xffffffff, 0xffffffff, 0xffffffff}},
    {{0xffffffff, 0xffffffff, 0xffffffff}, {0xffffffff, 0xffffffff, 0xffffffff}, {0xffffffff, 0xffffffff, 0xffffffff}},
    {{0xffffffff, 0xffffffff, 0xffffffff}, {0xffffffff, 0xffffffff, 0xffffffff}, {0xffffffff, 0xffffffff, 0xffffffff}},
    {{0xffffffff, 0xffffffff, 0xffffffff}, {0xffffffff, 0xffffffff, 0xffffffff}, {0xffffffff, 0xffffffff, 0xffffffff}},
    {{0xffffffff, 0xffffffff, 0xffffffff}, {0xffffffff, 0xffffffff, 0xffffffff}, {0xffffffff, 0xffffffff, 0xffffffff}},
    {{0xffffffff, 0xffffffff, 0xffffffff}, {0xffffffff, 0xffffffff, 0xffffffff}, {0xffffffff, 0xffffffff, 0xffffffff}},
    {{0xffffffff, 0xffffffff, 0xffffffff}, {0xffffffff, 0xffffffff, 0xffffffff}, {0xffffffff, 0xffffffff, 0xffffffff}},
    {{0xffffffff, 0xffffffff, 0xffffffff}, {0xffffffff, 0xffffffff, 0xffffffff}, {0xffffffff, 0xffffffff, 0xffffffff}},
    {{0xffffffff, 0xffffffff, 0xffffffff}, {0xffffffff, 0xffffffff, 0xffffffff}, {0xffffffff, 0xffffffff, 0xffffffff}},
    {{0xffffffff, 0xffffffff, 0xffffffff}, {0xffffffff, 0xffffffff, 0xffffffff}, {0xffffffff, 0xffffffff, 0xffffffff}},
    {{0xffffffff, 0xffffffff, 0xffffffff}, {0xffffffff, 0xffffffff, 0xffffffff}, {0xffffffff, 0xffffffff, 0xffffffff}},
    {{0xffffffff, 0xffffffff, 0xffffffff}, {0xffffffff, 0xffffffff, 0xffffffff}, {0xffffffff, 0xffffffff, 0xffffffff}},
    {{0xffffffff, 0xffffffff, 0xffffffff}, {0xffffffff, 0xffffffff, 0xffffffff}, {0xffffffff, 0xffffffff, 0xffffffff}},
    {{0xffffffff, 0xffffffff, 0xffffffff}, {0xffffffff, 0xffffffff, 0xffffffff}, {0xffffffff, 0xffffffff, 0xffffffff}},
    {{0xffffffff, 0xffffffff, 0xffffffff}, {0xffffffff, 0xffffffff, 0xffffffff}, {0xffffffff, 0xffffffff, 0xffffffff}},
    {{0xffffffff, 0xffffffff, 0xffffffff}, {0xffffffff, 0xffffffff, 0xffffffff}, {0xffffffff, 0xffffffff, 0xffffffff}}
};

const FIX_WT layer2_1_conv1_threshold[32] = {
      0x3fff, 0x3fff, 0x3fff, 0x3fff, 0x3fff, 0x3fff, 0x3fff, 0x3fff,
      0x3fff, 0x3fff, 0x3fff, 0x3fff, 0x3fff, 0x3fff, 0x3fff, 0x3fff,
      0x3fff, 0x3fff, 0x3fff, 0x3fff, 0x3fff, 0x3fff, 0x3fff, 0x3fff,
      0x3fff, 0x3fff, 0x3fff, 0x3fff, 0x3fff, 0x3fff, 0x3fff, 0x3fff
};

const FIX_WT layer2_1_bn1_weight[32] = {
      0x3fff, 0x3fff, 0x3fff, 0x3fff, 0x3fff, 0x3fff, 0x3fff, 0x3fff,
      0x3fff, 0x3fff, 0x3fff, 0x3fff, 0x3fff, 0x3fff, 0x3fff, 0x3fff,
      0x3fff, 0x3fff, 0x3fff, 0x3fff, 0x3fff, 0x3fff, 0x3fff, 0x3fff,
      0x3fff, 0x3fff, 0x3fff, 0x3fff, 0x3fff, 0x3fff, 0x3fff, 0x3fff
};

const FIX_WT layer2_1_bn1_bias[32] = {
      0x3fff, 0x3fff, 0x3fff, 0x3fff, 0x3fff, 0x3fff, 0x3fff, 0x3fff,
      0x3fff, 0x3fff, 0x3fff, 0x3fff, 0x3fff, 0x3fff, 0x3fff, 0x3fff,
      0x3fff, 0x3fff, 0x3fff, 0x3fff, 0x3fff, 0x3fff, 0x3fff, 0x3fff,
      0x3fff, 0x3fff, 0x3fff, 0x3fff, 0x3fff, 0x3fff, 0x3fff, 0x3fff
};

const FIX_WT layer2_1_bn1_running_mean[32] = {
      0x3fff, 0x3fff, 0x3fff, 0x3fff, 0x3fff, 0x3fff, 0x3fff, 0x3fff,
      0x3fff, 0x3fff, 0x3fff, 0x3fff, 0x3fff, 0x3fff, 0x3fff, 0x3fff,
      0x3fff, 0x3fff, 0x3fff, 0x3fff, 0x3fff, 0x3fff, 0x3fff, 0x3fff,
      0x3fff, 0x3fff, 0x3fff, 0x3fff, 0x3fff, 0x3fff, 0x3fff, 0x3fff
};

const FIX_WT layer2_1_bn1_running_var[32] = {
      0x3fff, 0x3fff, 0x3fff, 0x3fff, 0x3fff, 0x3fff, 0x3fff, 0x3fff,
      0x3fff, 0x3fff, 0x3fff, 0x3fff, 0x3fff, 0x3fff, 0x3fff, 0x3fff,
      0x3fff, 0x3fff, 0x3fff, 0x3fff, 0x3fff, 0x3fff, 0x3fff, 0x3fff,
      0x3fff, 0x3fff, 0x3fff, 0x3fff, 0x3fff, 0x3fff, 0x3fff, 0x3fff
};

const uint64 layer2_1_conv2_weight[32][3][3] = {
    {{0xffffffff, 0xffffffff, 0xffffffff}, {0xffffffff, 0xffffffff, 0xffffffff}, {0xffffffff, 0xffffffff, 0xffffffff}},
    {{0xffffffff, 0xffffffff, 0xffffffff}, {0xffffffff, 0xffffffff, 0xffffffff}, {0xffffffff, 0xffffffff, 0xffffffff}},
    {{0xffffffff, 0xffffffff, 0xffffffff}, {0xffffffff, 0xffffffff, 0xffffffff}, {0xffffffff, 0xffffffff, 0xffffffff}},
    {{0xffffffff, 0xffffffff, 0xffffffff}, {0xffffffff, 0xffffffff, 0xffffffff}, {0xffffffff, 0xffffffff, 0xffffffff}},
    {{0xffffffff, 0xffffffff, 0xffffffff}, {0xffffffff, 0xffffffff, 0xffffffff}, {0xffffffff, 0xffffffff, 0xffffffff}},
    {{0xffffffff, 0xffffffff, 0xffffffff}, {0xffffffff, 0xffffffff, 0xffffffff}, {0xffffffff, 0xffffffff, 0xffffffff}},
    {{0xffffffff, 0xffffffff, 0xffffffff}, {0xffffffff, 0xffffffff, 0xffffffff}, {0xffffffff, 0xffffffff, 0xffffffff}},
    {{0xffffffff, 0xffffffff, 0xffffffff}, {0xffffffff, 0xffffffff, 0xffffffff}, {0xffffffff, 0xffffffff, 0xffffffff}},
    {{0xffffffff, 0xffffffff, 0xffffffff}, {0xffffffff, 0xffffffff, 0xffffffff}, {0xffffffff, 0xffffffff, 0xffffffff}},
    {{0xffffffff, 0xffffffff, 0xffffffff}, {0xffffffff, 0xffffffff, 0xffffffff}, {0xffffffff, 0xffffffff, 0xffffffff}},
    {{0xffffffff, 0xffffffff, 0xffffffff}, {0xffffffff, 0xffffffff, 0xffffffff}, {0xffffffff, 0xffffffff, 0xffffffff}},
    {{0xffffffff, 0xffffffff, 0xffffffff}, {0xffffffff, 0xffffffff, 0xffffffff}, {0xffffffff, 0xffffffff, 0xffffffff}},
    {{0xffffffff, 0xffffffff, 0xffffffff}, {0xffffffff, 0xffffffff, 0xffffffff}, {0xffffffff, 0xffffffff, 0xffffffff}},
    {{0xffffffff, 0xffffffff, 0xffffffff}, {0xffffffff, 0xffffffff, 0xffffffff}, {0xffffffff, 0xffffffff, 0xffffffff}},
    {{0xffffffff, 0xffffffff, 0xffffffff}, {0xffffffff, 0xffffffff, 0xffffffff}, {0xffffffff, 0xffffffff, 0xffffffff}},
    {{0xffffffff, 0xffffffff, 0xffffffff}, {0xffffffff, 0xffffffff, 0xffffffff}, {0xffffffff, 0xffffffff, 0xffffffff}},
    {{0xffffffff, 0xffffffff, 0xffffffff}, {0xffffffff, 0xffffffff, 0xffffffff}, {0xffffffff, 0xffffffff, 0xffffffff}},
    {{0xffffffff, 0xffffffff, 0xffffffff}, {0xffffffff, 0xffffffff, 0xffffffff}, {0xffffffff, 0xffffffff, 0xffffffff}},
    {{0xffffffff, 0xffffffff, 0xffffffff}, {0xffffffff, 0xffffffff, 0xffffffff}, {0xffffffff, 0xffffffff, 0xffffffff}},
    {{0xffffffff, 0xffffffff, 0xffffffff}, {0xffffffff, 0xffffffff, 0xffffffff}, {0xffffffff, 0xffffffff, 0xffffffff}},
    {{0xffffffff, 0xffffffff, 0xffffffff}, {0xffffffff, 0xffffffff, 0xffffffff}, {0xffffffff, 0xffffffff, 0xffffffff}},
    {{0xffffffff, 0xffffffff, 0xffffffff}, {0xffffffff, 0xffffffff, 0xffffffff}, {0xffffffff, 0xffffffff, 0xffffffff}},
    {{0xffffffff, 0xffffffff, 0xffffffff}, {0xffffffff, 0xffffffff, 0xffffffff}, {0xffffffff, 0xffffffff, 0xffffffff}},
    {{0xffffffff, 0xffffffff, 0xffffffff}, {0xffffffff, 0xffffffff, 0xffffffff}, {0xffffffff, 0xffffffff, 0xffffffff}},
    {{0xffffffff, 0xffffffff, 0xffffffff}, {0xffffffff, 0xffffffff, 0xffffffff}, {0xffffffff, 0xffffffff, 0xffffffff}},
    {{0xffffffff, 0xffffffff, 0xffffffff}, {0xffffffff, 0xffffffff, 0xffffffff}, {0xffffffff, 0xffffffff, 0xffffffff}},
    {{0xffffffff, 0xffffffff, 0xffffffff}, {0xffffffff, 0xffffffff, 0xffffffff}, {0xffffffff, 0xffffffff, 0xffffffff}},
    {{0xffffffff, 0xffffffff, 0xffffffff}, {0xffffffff, 0xffffffff, 0xffffffff}, {0xffffffff, 0xffffffff, 0xffffffff}},
    {{0xffffffff, 0xffffffff, 0xffffffff}, {0xffffffff, 0xffffffff, 0xffffffff}, {0xffffffff, 0xffffffff, 0xffffffff}},
    {{0xffffffff, 0xffffffff, 0xffffffff}, {0xffffffff, 0xffffffff, 0xffffffff}, {0xffffffff, 0xffffffff, 0xffffffff}},
    {{0xffffffff, 0xffffffff, 0xffffffff}, {0xffffffff, 0xffffffff, 0xffffffff}, {0xffffffff, 0xffffffff, 0xffffffff}},
    {{0xffffffff, 0xffffffff, 0xffffffff}, {0xffffffff, 0xffffffff, 0xffffffff}, {0xffffffff, 0xffffffff, 0xffffffff}}
};

const FIX_WT layer2_1_conv2_threshold[32] = {
      0x3fff, 0x3fff, 0x3fff, 0x3fff, 0x3fff, 0x3fff, 0x3fff, 0x3fff,
      0x3fff, 0x3fff, 0x3fff, 0x3fff, 0x3fff, 0x3fff, 0x3fff, 0x3fff,
      0x3fff, 0x3fff, 0x3fff, 0x3fff, 0x3fff, 0x3fff, 0x3fff, 0x3fff,
      0x3fff, 0x3fff, 0x3fff, 0x3fff, 0x3fff, 0x3fff, 0x3fff, 0x3fff
};

const FIX_WT layer2_1_bn2_weight[32] = {
      0x3fff, 0x3fff, 0x3fff, 0x3fff, 0x3fff, 0x3fff, 0x3fff, 0x3fff,
      0x3fff, 0x3fff, 0x3fff, 0x3fff, 0x3fff, 0x3fff, 0x3fff, 0x3fff,
      0x3fff, 0x3fff, 0x3fff, 0x3fff, 0x3fff, 0x3fff, 0x3fff, 0x3fff,
      0x3fff, 0x3fff, 0x3fff, 0x3fff, 0x3fff, 0x3fff, 0x3fff, 0x3fff
};

const FIX_WT layer2_1_bn2_bias[32] = {
      0x3fff, 0x3fff, 0x3fff, 0x3fff, 0x3fff, 0x3fff, 0x3fff, 0x3fff,
      0x3fff, 0x3fff, 0x3fff, 0x3fff, 0x3fff, 0x3fff, 0x3fff, 0x3fff,
      0x3fff, 0x3fff, 0x3fff, 0x3fff, 0x3fff, 0x3fff, 0x3fff, 0x3fff,
      0x3fff, 0x3fff, 0x3fff, 0x3fff, 0x3fff, 0x3fff, 0x3fff, 0x3fff
};

const FIX_WT layer2_1_bn2_running_mean[32] = {
      0x3fff, 0x3fff, 0x3fff, 0x3fff, 0x3fff, 0x3fff, 0x3fff, 0x3fff,
      0x3fff, 0x3fff, 0x3fff, 0x3fff, 0x3fff, 0x3fff, 0x3fff, 0x3fff,
      0x3fff, 0x3fff, 0x3fff, 0x3fff, 0x3fff, 0x3fff, 0x3fff, 0x3fff,
      0x3fff, 0x3fff, 0x3fff, 0x3fff, 0x3fff, 0x3fff, 0x3fff, 0x3fff
};

const FIX_WT layer2_1_bn2_running_var[32] = {
      0x3fff, 0x3fff, 0x3fff, 0x3fff, 0x3fff, 0x3fff, 0x3fff, 0x3fff,
      0x3fff, 0x3fff, 0x3fff, 0x3fff, 0x3fff, 0x3fff, 0x3fff, 0x3fff,
      0x3fff, 0x3fff, 0x3fff, 0x3fff, 0x3fff, 0x3fff, 0x3fff, 0x3fff,
      0x3fff, 0x3fff, 0x3fff, 0x3fff, 0x3fff, 0x3fff, 0x3fff, 0x3fff
};

const FIX_WT layer2_1_bn3_weight[32] = {
      0x3fff, 0x3fff, 0x3fff, 0x3fff, 0x3fff, 0x3fff, 0x3fff, 0x3fff,
      0x3fff, 0x3fff, 0x3fff, 0x3fff, 0x3fff, 0x3fff, 0x3fff, 0x3fff,
      0x3fff, 0x3fff, 0x3fff, 0x3fff, 0x3fff, 0x3fff, 0x3fff, 0x3fff,
      0x3fff, 0x3fff, 0x3fff, 0x3fff, 0x3fff, 0x3fff, 0x3fff, 0x3fff
};

const FIX_WT layer2_1_bn3_bias[32] = {
      0x3fff, 0x3fff, 0x3fff, 0x3fff, 0x3fff, 0x3fff, 0x3fff, 0x3fff,
      0x3fff, 0x3fff, 0x3fff, 0x3fff, 0x3fff, 0x3fff, 0x3fff, 0x3fff,
      0x3fff, 0x3fff, 0x3fff, 0x3fff, 0x3fff, 0x3fff, 0x3fff, 0x3fff,
      0x3fff, 0x3fff, 0x3fff, 0x3fff, 0x3fff, 0x3fff, 0x3fff, 0x3fff
};

const FIX_WT layer2_1_bn3_running_mean[32] = {
      0x3fff, 0x3fff, 0x3fff, 0x3fff, 0x3fff, 0x3fff, 0x3fff, 0x3fff,
      0x3fff, 0x3fff, 0x3fff, 0x3fff, 0x3fff, 0x3fff, 0x3fff, 0x3fff,
      0x3fff, 0x3fff, 0x3fff, 0x3fff, 0x3fff, 0x3fff, 0x3fff, 0x3fff,
      0x3fff, 0x3fff, 0x3fff, 0x3fff, 0x3fff, 0x3fff, 0x3fff, 0x3fff
};

const FIX_WT layer2_1_bn3_running_var[32] = {
      0x3fff, 0x3fff, 0x3fff, 0x3fff, 0x3fff, 0x3fff, 0x3fff, 0x3fff,
      0x3fff, 0x3fff, 0x3fff, 0x3fff, 0x3fff, 0x3fff, 0x3fff, 0x3fff,
      0x3fff, 0x3fff, 0x3fff, 0x3fff, 0x3fff, 0x3fff, 0x3fff, 0x3fff,
      0x3fff, 0x3fff, 0x3fff, 0x3fff, 0x3fff, 0x3fff, 0x3fff, 0x3fff
};

const FIX_WT layer2_1_bn4_weight[32] = {
      0x3fff, 0x3fff, 0x3fff, 0x3fff, 0x3fff, 0x3fff, 0x3fff, 0x3fff,
      0x3fff, 0x3fff, 0x3fff, 0x3fff, 0x3fff, 0x3fff, 0x3fff, 0x3fff,
      0x3fff, 0x3fff, 0x3fff, 0x3fff, 0x3fff, 0x3fff, 0x3fff, 0x3fff,
      0x3fff, 0x3fff, 0x3fff, 0x3fff, 0x3fff, 0x3fff, 0x3fff, 0x3fff
};

const FIX_WT layer2_1_bn4_bias[32] = {
      0x3fff, 0x3fff, 0x3fff, 0x3fff, 0x3fff, 0x3fff, 0x3fff, 0x3fff,
      0x3fff, 0x3fff, 0x3fff, 0x3fff, 0x3fff, 0x3fff, 0x3fff, 0x3fff,
      0x3fff, 0x3fff, 0x3fff, 0x3fff, 0x3fff, 0x3fff, 0x3fff, 0x3fff,
      0x3fff, 0x3fff, 0x3fff, 0x3fff, 0x3fff, 0x3fff, 0x3fff, 0x3fff
};

const FIX_WT layer2_1_bn4_running_mean[32] = {
      0x3fff, 0x3fff, 0x3fff, 0x3fff, 0x3fff, 0x3fff, 0x3fff, 0x3fff,
      0x3fff, 0x3fff, 0x3fff, 0x3fff, 0x3fff, 0x3fff, 0x3fff, 0x3fff,
      0x3fff, 0x3fff, 0x3fff, 0x3fff, 0x3fff, 0x3fff, 0x3fff, 0x3fff,
      0x3fff, 0x3fff, 0x3fff, 0x3fff, 0x3fff, 0x3fff, 0x3fff, 0x3fff
};

const FIX_WT layer2_1_bn4_running_var[32] = {
      0x3fff, 0x3fff, 0x3fff, 0x3fff, 0x3fff, 0x3fff, 0x3fff, 0x3fff,
      0x3fff, 0x3fff, 0x3fff, 0x3fff, 0x3fff, 0x3fff, 0x3fff, 0x3fff,
      0x3fff, 0x3fff, 0x3fff, 0x3fff, 0x3fff, 0x3fff, 0x3fff, 0x3fff,
      0x3fff, 0x3fff, 0x3fff, 0x3fff, 0x3fff, 0x3fff, 0x3fff, 0x3fff
};

const FIX_WT layer2_2_rprelu1_shift_x_bias[32] = {
      0x3fff, 0x3fff, 0x3fff, 0x3fff, 0x3fff, 0x3fff, 0x3fff, 0x3fff,
      0x3fff, 0x3fff, 0x3fff, 0x3fff, 0x3fff, 0x3fff, 0x3fff, 0x3fff,
      0x3fff, 0x3fff, 0x3fff, 0x3fff, 0x3fff, 0x3fff, 0x3fff, 0x3fff,
      0x3fff, 0x3fff, 0x3fff, 0x3fff, 0x3fff, 0x3fff, 0x3fff, 0x3fff
};

const FIX_WT layer2_2_rprelu1_shift_y_bias[32] = {
      0x3fff, 0x3fff, 0x3fff, 0x3fff, 0x3fff, 0x3fff, 0x3fff, 0x3fff,
      0x3fff, 0x3fff, 0x3fff, 0x3fff, 0x3fff, 0x3fff, 0x3fff, 0x3fff,
      0x3fff, 0x3fff, 0x3fff, 0x3fff, 0x3fff, 0x3fff, 0x3fff, 0x3fff,
      0x3fff, 0x3fff, 0x3fff, 0x3fff, 0x3fff, 0x3fff, 0x3fff, 0x3fff
};

const FIX_WT layer2_2_rprelu1_prelu_weight[32] = {
      0x3fff, 0x3fff, 0x3fff, 0x3fff, 0x3fff, 0x3fff, 0x3fff, 0x3fff,
      0x3fff, 0x3fff, 0x3fff, 0x3fff, 0x3fff, 0x3fff, 0x3fff, 0x3fff,
      0x3fff, 0x3fff, 0x3fff, 0x3fff, 0x3fff, 0x3fff, 0x3fff, 0x3fff,
      0x3fff, 0x3fff, 0x3fff, 0x3fff, 0x3fff, 0x3fff, 0x3fff, 0x3fff
};

const FIX_WT layer2_2_rprelu2_shift_x_bias[32] = {
      0x3fff, 0x3fff, 0x3fff, 0x3fff, 0x3fff, 0x3fff, 0x3fff, 0x3fff,
      0x3fff, 0x3fff, 0x3fff, 0x3fff, 0x3fff, 0x3fff, 0x3fff, 0x3fff,
      0x3fff, 0x3fff, 0x3fff, 0x3fff, 0x3fff, 0x3fff, 0x3fff, 0x3fff,
      0x3fff, 0x3fff, 0x3fff, 0x3fff, 0x3fff, 0x3fff, 0x3fff, 0x3fff
};

const FIX_WT layer2_2_rprelu2_shift_y_bias[32] = {
      0x3fff, 0x3fff, 0x3fff, 0x3fff, 0x3fff, 0x3fff, 0x3fff, 0x3fff,
      0x3fff, 0x3fff, 0x3fff, 0x3fff, 0x3fff, 0x3fff, 0x3fff, 0x3fff,
      0x3fff, 0x3fff, 0x3fff, 0x3fff, 0x3fff, 0x3fff, 0x3fff, 0x3fff,
      0x3fff, 0x3fff, 0x3fff, 0x3fff, 0x3fff, 0x3fff, 0x3fff, 0x3fff
};

const FIX_WT layer2_2_rprelu2_prelu_weight[32] = {
      0x3fff, 0x3fff, 0x3fff, 0x3fff, 0x3fff, 0x3fff, 0x3fff, 0x3fff,
      0x3fff, 0x3fff, 0x3fff, 0x3fff, 0x3fff, 0x3fff, 0x3fff, 0x3fff,
      0x3fff, 0x3fff, 0x3fff, 0x3fff, 0x3fff, 0x3fff, 0x3fff, 0x3fff,
      0x3fff, 0x3fff, 0x3fff, 0x3fff, 0x3fff, 0x3fff, 0x3fff, 0x3fff
};

const uint64 layer2_2_conv1_weight[32][3][3] = {
    {{0xffffffff, 0xffffffff, 0xffffffff}, {0xffffffff, 0xffffffff, 0xffffffff}, {0xffffffff, 0xffffffff, 0xffffffff}},
    {{0xffffffff, 0xffffffff, 0xffffffff}, {0xffffffff, 0xffffffff, 0xffffffff}, {0xffffffff, 0xffffffff, 0xffffffff}},
    {{0xffffffff, 0xffffffff, 0xffffffff}, {0xffffffff, 0xffffffff, 0xffffffff}, {0xffffffff, 0xffffffff, 0xffffffff}},
    {{0xffffffff, 0xffffffff, 0xffffffff}, {0xffffffff, 0xffffffff, 0xffffffff}, {0xffffffff, 0xffffffff, 0xffffffff}},
    {{0xffffffff, 0xffffffff, 0xffffffff}, {0xffffffff, 0xffffffff, 0xffffffff}, {0xffffffff, 0xffffffff, 0xffffffff}},
    {{0xffffffff, 0xffffffff, 0xffffffff}, {0xffffffff, 0xffffffff, 0xffffffff}, {0xffffffff, 0xffffffff, 0xffffffff}},
    {{0xffffffff, 0xffffffff, 0xffffffff}, {0xffffffff, 0xffffffff, 0xffffffff}, {0xffffffff, 0xffffffff, 0xffffffff}},
    {{0xffffffff, 0xffffffff, 0xffffffff}, {0xffffffff, 0xffffffff, 0xffffffff}, {0xffffffff, 0xffffffff, 0xffffffff}},
    {{0xffffffff, 0xffffffff, 0xffffffff}, {0xffffffff, 0xffffffff, 0xffffffff}, {0xffffffff, 0xffffffff, 0xffffffff}},
    {{0xffffffff, 0xffffffff, 0xffffffff}, {0xffffffff, 0xffffffff, 0xffffffff}, {0xffffffff, 0xffffffff, 0xffffffff}},
    {{0xffffffff, 0xffffffff, 0xffffffff}, {0xffffffff, 0xffffffff, 0xffffffff}, {0xffffffff, 0xffffffff, 0xffffffff}},
    {{0xffffffff, 0xffffffff, 0xffffffff}, {0xffffffff, 0xffffffff, 0xffffffff}, {0xffffffff, 0xffffffff, 0xffffffff}},
    {{0xffffffff, 0xffffffff, 0xffffffff}, {0xffffffff, 0xffffffff, 0xffffffff}, {0xffffffff, 0xffffffff, 0xffffffff}},
    {{0xffffffff, 0xffffffff, 0xffffffff}, {0xffffffff, 0xffffffff, 0xffffffff}, {0xffffffff, 0xffffffff, 0xffffffff}},
    {{0xffffffff, 0xffffffff, 0xffffffff}, {0xffffffff, 0xffffffff, 0xffffffff}, {0xffffffff, 0xffffffff, 0xffffffff}},
    {{0xffffffff, 0xffffffff, 0xffffffff}, {0xffffffff, 0xffffffff, 0xffffffff}, {0xffffffff, 0xffffffff, 0xffffffff}},
    {{0xffffffff, 0xffffffff, 0xffffffff}, {0xffffffff, 0xffffffff, 0xffffffff}, {0xffffffff, 0xffffffff, 0xffffffff}},
    {{0xffffffff, 0xffffffff, 0xffffffff}, {0xffffffff, 0xffffffff, 0xffffffff}, {0xffffffff, 0xffffffff, 0xffffffff}},
    {{0xffffffff, 0xffffffff, 0xffffffff}, {0xffffffff, 0xffffffff, 0xffffffff}, {0xffffffff, 0xffffffff, 0xffffffff}},
    {{0xffffffff, 0xffffffff, 0xffffffff}, {0xffffffff, 0xffffffff, 0xffffffff}, {0xffffffff, 0xffffffff, 0xffffffff}},
    {{0xffffffff, 0xffffffff, 0xffffffff}, {0xffffffff, 0xffffffff, 0xffffffff}, {0xffffffff, 0xffffffff, 0xffffffff}},
    {{0xffffffff, 0xffffffff, 0xffffffff}, {0xffffffff, 0xffffffff, 0xffffffff}, {0xffffffff, 0xffffffff, 0xffffffff}},
    {{0xffffffff, 0xffffffff, 0xffffffff}, {0xffffffff, 0xffffffff, 0xffffffff}, {0xffffffff, 0xffffffff, 0xffffffff}},
    {{0xffffffff, 0xffffffff, 0xffffffff}, {0xffffffff, 0xffffffff, 0xffffffff}, {0xffffffff, 0xffffffff, 0xffffffff}},
    {{0xffffffff, 0xffffffff, 0xffffffff}, {0xffffffff, 0xffffffff, 0xffffffff}, {0xffffffff, 0xffffffff, 0xffffffff}},
    {{0xffffffff, 0xffffffff, 0xffffffff}, {0xffffffff, 0xffffffff, 0xffffffff}, {0xffffffff, 0xffffffff, 0xffffffff}},
    {{0xffffffff, 0xffffffff, 0xffffffff}, {0xffffffff, 0xffffffff, 0xffffffff}, {0xffffffff, 0xffffffff, 0xffffffff}},
    {{0xffffffff, 0xffffffff, 0xffffffff}, {0xffffffff, 0xffffffff, 0xffffffff}, {0xffffffff, 0xffffffff, 0xffffffff}},
    {{0xffffffff, 0xffffffff, 0xffffffff}, {0xffffffff, 0xffffffff, 0xffffffff}, {0xffffffff, 0xffffffff, 0xffffffff}},
    {{0xffffffff, 0xffffffff, 0xffffffff}, {0xffffffff, 0xffffffff, 0xffffffff}, {0xffffffff, 0xffffffff, 0xffffffff}},
    {{0xffffffff, 0xffffffff, 0xffffffff}, {0xffffffff, 0xffffffff, 0xffffffff}, {0xffffffff, 0xffffffff, 0xffffffff}},
    {{0xffffffff, 0xffffffff, 0xffffffff}, {0xffffffff, 0xffffffff, 0xffffffff}, {0xffffffff, 0xffffffff, 0xffffffff}}
};

const FIX_WT layer2_2_conv1_threshold[32] = {
      0x3fff, 0x3fff, 0x3fff, 0x3fff, 0x3fff, 0x3fff, 0x3fff, 0x3fff,
      0x3fff, 0x3fff, 0x3fff, 0x3fff, 0x3fff, 0x3fff, 0x3fff, 0x3fff,
      0x3fff, 0x3fff, 0x3fff, 0x3fff, 0x3fff, 0x3fff, 0x3fff, 0x3fff,
      0x3fff, 0x3fff, 0x3fff, 0x3fff, 0x3fff, 0x3fff, 0x3fff, 0x3fff
};

const FIX_WT layer2_2_bn1_weight[32] = {
      0x3fff, 0x3fff, 0x3fff, 0x3fff, 0x3fff, 0x3fff, 0x3fff, 0x3fff,
      0x3fff, 0x3fff, 0x3fff, 0x3fff, 0x3fff, 0x3fff, 0x3fff, 0x3fff,
      0x3fff, 0x3fff, 0x3fff, 0x3fff, 0x3fff, 0x3fff, 0x3fff, 0x3fff,
      0x3fff, 0x3fff, 0x3fff, 0x3fff, 0x3fff, 0x3fff, 0x3fff, 0x3fff
};

const FIX_WT layer2_2_bn1_bias[32] = {
      0x3fff, 0x3fff, 0x3fff, 0x3fff, 0x3fff, 0x3fff, 0x3fff, 0x3fff,
      0x3fff, 0x3fff, 0x3fff, 0x3fff, 0x3fff, 0x3fff, 0x3fff, 0x3fff,
      0x3fff, 0x3fff, 0x3fff, 0x3fff, 0x3fff, 0x3fff, 0x3fff, 0x3fff,
      0x3fff, 0x3fff, 0x3fff, 0x3fff, 0x3fff, 0x3fff, 0x3fff, 0x3fff
};

const FIX_WT layer2_2_bn1_running_mean[32] = {
      0x3fff, 0x3fff, 0x3fff, 0x3fff, 0x3fff, 0x3fff, 0x3fff, 0x3fff,
      0x3fff, 0x3fff, 0x3fff, 0x3fff, 0x3fff, 0x3fff, 0x3fff, 0x3fff,
      0x3fff, 0x3fff, 0x3fff, 0x3fff, 0x3fff, 0x3fff, 0x3fff, 0x3fff,
      0x3fff, 0x3fff, 0x3fff, 0x3fff, 0x3fff, 0x3fff, 0x3fff, 0x3fff
};

const FIX_WT layer2_2_bn1_running_var[32] = {
      0x3fff, 0x3fff, 0x3fff, 0x3fff, 0x3fff, 0x3fff, 0x3fff, 0x3fff,
      0x3fff, 0x3fff, 0x3fff, 0x3fff, 0x3fff, 0x3fff, 0x3fff, 0x3fff,
      0x3fff, 0x3fff, 0x3fff, 0x3fff, 0x3fff, 0x3fff, 0x3fff, 0x3fff,
      0x3fff, 0x3fff, 0x3fff, 0x3fff, 0x3fff, 0x3fff, 0x3fff, 0x3fff
};

const uint64 layer2_2_conv2_weight[32][3][3] = {
    {{0xffffffff, 0xffffffff, 0xffffffff}, {0xffffffff, 0xffffffff, 0xffffffff}, {0xffffffff, 0xffffffff, 0xffffffff}},
    {{0xffffffff, 0xffffffff, 0xffffffff}, {0xffffffff, 0xffffffff, 0xffffffff}, {0xffffffff, 0xffffffff, 0xffffffff}},
    {{0xffffffff, 0xffffffff, 0xffffffff}, {0xffffffff, 0xffffffff, 0xffffffff}, {0xffffffff, 0xffffffff, 0xffffffff}},
    {{0xffffffff, 0xffffffff, 0xffffffff}, {0xffffffff, 0xffffffff, 0xffffffff}, {0xffffffff, 0xffffffff, 0xffffffff}},
    {{0xffffffff, 0xffffffff, 0xffffffff}, {0xffffffff, 0xffffffff, 0xffffffff}, {0xffffffff, 0xffffffff, 0xffffffff}},
    {{0xffffffff, 0xffffffff, 0xffffffff}, {0xffffffff, 0xffffffff, 0xffffffff}, {0xffffffff, 0xffffffff, 0xffffffff}},
    {{0xffffffff, 0xffffffff, 0xffffffff}, {0xffffffff, 0xffffffff, 0xffffffff}, {0xffffffff, 0xffffffff, 0xffffffff}},
    {{0xffffffff, 0xffffffff, 0xffffffff}, {0xffffffff, 0xffffffff, 0xffffffff}, {0xffffffff, 0xffffffff, 0xffffffff}},
    {{0xffffffff, 0xffffffff, 0xffffffff}, {0xffffffff, 0xffffffff, 0xffffffff}, {0xffffffff, 0xffffffff, 0xffffffff}},
    {{0xffffffff, 0xffffffff, 0xffffffff}, {0xffffffff, 0xffffffff, 0xffffffff}, {0xffffffff, 0xffffffff, 0xffffffff}},
    {{0xffffffff, 0xffffffff, 0xffffffff}, {0xffffffff, 0xffffffff, 0xffffffff}, {0xffffffff, 0xffffffff, 0xffffffff}},
    {{0xffffffff, 0xffffffff, 0xffffffff}, {0xffffffff, 0xffffffff, 0xffffffff}, {0xffffffff, 0xffffffff, 0xffffffff}},
    {{0xffffffff, 0xffffffff, 0xffffffff}, {0xffffffff, 0xffffffff, 0xffffffff}, {0xffffffff, 0xffffffff, 0xffffffff}},
    {{0xffffffff, 0xffffffff, 0xffffffff}, {0xffffffff, 0xffffffff, 0xffffffff}, {0xffffffff, 0xffffffff, 0xffffffff}},
    {{0xffffffff, 0xffffffff, 0xffffffff}, {0xffffffff, 0xffffffff, 0xffffffff}, {0xffffffff, 0xffffffff, 0xffffffff}},
    {{0xffffffff, 0xffffffff, 0xffffffff}, {0xffffffff, 0xffffffff, 0xffffffff}, {0xffffffff, 0xffffffff, 0xffffffff}},
    {{0xffffffff, 0xffffffff, 0xffffffff}, {0xffffffff, 0xffffffff, 0xffffffff}, {0xffffffff, 0xffffffff, 0xffffffff}},
    {{0xffffffff, 0xffffffff, 0xffffffff}, {0xffffffff, 0xffffffff, 0xffffffff}, {0xffffffff, 0xffffffff, 0xffffffff}},
    {{0xffffffff, 0xffffffff, 0xffffffff}, {0xffffffff, 0xffffffff, 0xffffffff}, {0xffffffff, 0xffffffff, 0xffffffff}},
    {{0xffffffff, 0xffffffff, 0xffffffff}, {0xffffffff, 0xffffffff, 0xffffffff}, {0xffffffff, 0xffffffff, 0xffffffff}},
    {{0xffffffff, 0xffffffff, 0xffffffff}, {0xffffffff, 0xffffffff, 0xffffffff}, {0xffffffff, 0xffffffff, 0xffffffff}},
    {{0xffffffff, 0xffffffff, 0xffffffff}, {0xffffffff, 0xffffffff, 0xffffffff}, {0xffffffff, 0xffffffff, 0xffffffff}},
    {{0xffffffff, 0xffffffff, 0xffffffff}, {0xffffffff, 0xffffffff, 0xffffffff}, {0xffffffff, 0xffffffff, 0xffffffff}},
    {{0xffffffff, 0xffffffff, 0xffffffff}, {0xffffffff, 0xffffffff, 0xffffffff}, {0xffffffff, 0xffffffff, 0xffffffff}},
    {{0xffffffff, 0xffffffff, 0xffffffff}, {0xffffffff, 0xffffffff, 0xffffffff}, {0xffffffff, 0xffffffff, 0xffffffff}},
    {{0xffffffff, 0xffffffff, 0xffffffff}, {0xffffffff, 0xffffffff, 0xffffffff}, {0xffffffff, 0xffffffff, 0xffffffff}},
    {{0xffffffff, 0xffffffff, 0xffffffff}, {0xffffffff, 0xffffffff, 0xffffffff}, {0xffffffff, 0xffffffff, 0xffffffff}},
    {{0xffffffff, 0xffffffff, 0xffffffff}, {0xffffffff, 0xffffffff, 0xffffffff}, {0xffffffff, 0xffffffff, 0xffffffff}},
    {{0xffffffff, 0xffffffff, 0xffffffff}, {0xffffffff, 0xffffffff, 0xffffffff}, {0xffffffff, 0xffffffff, 0xffffffff}},
    {{0xffffffff, 0xffffffff, 0xffffffff}, {0xffffffff, 0xffffffff, 0xffffffff}, {0xffffffff, 0xffffffff, 0xffffffff}},
    {{0xffffffff, 0xffffffff, 0xffffffff}, {0xffffffff, 0xffffffff, 0xffffffff}, {0xffffffff, 0xffffffff, 0xffffffff}},
    {{0xffffffff, 0xffffffff, 0xffffffff}, {0xffffffff, 0xffffffff, 0xffffffff}, {0xffffffff, 0xffffffff, 0xffffffff}}
};

const FIX_WT layer2_2_conv2_threshold[32] = {
      0x3fff, 0x3fff, 0x3fff, 0x3fff, 0x3fff, 0x3fff, 0x3fff, 0x3fff,
      0x3fff, 0x3fff, 0x3fff, 0x3fff, 0x3fff, 0x3fff, 0x3fff, 0x3fff,
      0x3fff, 0x3fff, 0x3fff, 0x3fff, 0x3fff, 0x3fff, 0x3fff, 0x3fff,
      0x3fff, 0x3fff, 0x3fff, 0x3fff, 0x3fff, 0x3fff, 0x3fff, 0x3fff
};

const FIX_WT layer2_2_bn2_weight[32] = {
      0x3fff, 0x3fff, 0x3fff, 0x3fff, 0x3fff, 0x3fff, 0x3fff, 0x3fff,
      0x3fff, 0x3fff, 0x3fff, 0x3fff, 0x3fff, 0x3fff, 0x3fff, 0x3fff,
      0x3fff, 0x3fff, 0x3fff, 0x3fff, 0x3fff, 0x3fff, 0x3fff, 0x3fff,
      0x3fff, 0x3fff, 0x3fff, 0x3fff, 0x3fff, 0x3fff, 0x3fff, 0x3fff
};

const FIX_WT layer2_2_bn2_bias[32] = {
      0x3fff, 0x3fff, 0x3fff, 0x3fff, 0x3fff, 0x3fff, 0x3fff, 0x3fff,
      0x3fff, 0x3fff, 0x3fff, 0x3fff, 0x3fff, 0x3fff, 0x3fff, 0x3fff,
      0x3fff, 0x3fff, 0x3fff, 0x3fff, 0x3fff, 0x3fff, 0x3fff, 0x3fff,
      0x3fff, 0x3fff, 0x3fff, 0x3fff, 0x3fff, 0x3fff, 0x3fff, 0x3fff
};

const FIX_WT layer2_2_bn2_running_mean[32] = {
      0x3fff, 0x3fff, 0x3fff, 0x3fff, 0x3fff, 0x3fff, 0x3fff, 0x3fff,
      0x3fff, 0x3fff, 0x3fff, 0x3fff, 0x3fff, 0x3fff, 0x3fff, 0x3fff,
      0x3fff, 0x3fff, 0x3fff, 0x3fff, 0x3fff, 0x3fff, 0x3fff, 0x3fff,
      0x3fff, 0x3fff, 0x3fff, 0x3fff, 0x3fff, 0x3fff, 0x3fff, 0x3fff
};

const FIX_WT layer2_2_bn2_running_var[32] = {
      0x3fff, 0x3fff, 0x3fff, 0x3fff, 0x3fff, 0x3fff, 0x3fff, 0x3fff,
      0x3fff, 0x3fff, 0x3fff, 0x3fff, 0x3fff, 0x3fff, 0x3fff, 0x3fff,
      0x3fff, 0x3fff, 0x3fff, 0x3fff, 0x3fff, 0x3fff, 0x3fff, 0x3fff,
      0x3fff, 0x3fff, 0x3fff, 0x3fff, 0x3fff, 0x3fff, 0x3fff, 0x3fff
};

const FIX_WT layer2_2_bn3_weight[32] = {
      0x3fff, 0x3fff, 0x3fff, 0x3fff, 0x3fff, 0x3fff, 0x3fff, 0x3fff,
      0x3fff, 0x3fff, 0x3fff, 0x3fff, 0x3fff, 0x3fff, 0x3fff, 0x3fff,
      0x3fff, 0x3fff, 0x3fff, 0x3fff, 0x3fff, 0x3fff, 0x3fff, 0x3fff,
      0x3fff, 0x3fff, 0x3fff, 0x3fff, 0x3fff, 0x3fff, 0x3fff, 0x3fff
};

const FIX_WT layer2_2_bn3_bias[32] = {
      0x3fff, 0x3fff, 0x3fff, 0x3fff, 0x3fff, 0x3fff, 0x3fff, 0x3fff,
      0x3fff, 0x3fff, 0x3fff, 0x3fff, 0x3fff, 0x3fff, 0x3fff, 0x3fff,
      0x3fff, 0x3fff, 0x3fff, 0x3fff, 0x3fff, 0x3fff, 0x3fff, 0x3fff,
      0x3fff, 0x3fff, 0x3fff, 0x3fff, 0x3fff, 0x3fff, 0x3fff, 0x3fff
};

const FIX_WT layer2_2_bn3_running_mean[32] = {
      0x3fff, 0x3fff, 0x3fff, 0x3fff, 0x3fff, 0x3fff, 0x3fff, 0x3fff,
      0x3fff, 0x3fff, 0x3fff, 0x3fff, 0x3fff, 0x3fff, 0x3fff, 0x3fff,
      0x3fff, 0x3fff, 0x3fff, 0x3fff, 0x3fff, 0x3fff, 0x3fff, 0x3fff,
      0x3fff, 0x3fff, 0x3fff, 0x3fff, 0x3fff, 0x3fff, 0x3fff, 0x3fff
};

const FIX_WT layer2_2_bn3_running_var[32] = {
      0x3fff, 0x3fff, 0x3fff, 0x3fff, 0x3fff, 0x3fff, 0x3fff, 0x3fff,
      0x3fff, 0x3fff, 0x3fff, 0x3fff, 0x3fff, 0x3fff, 0x3fff, 0x3fff,
      0x3fff, 0x3fff, 0x3fff, 0x3fff, 0x3fff, 0x3fff, 0x3fff, 0x3fff,
      0x3fff, 0x3fff, 0x3fff, 0x3fff, 0x3fff, 0x3fff, 0x3fff, 0x3fff
};

const FIX_WT layer2_2_bn4_weight[32] = {
      0x3fff, 0x3fff, 0x3fff, 0x3fff, 0x3fff, 0x3fff, 0x3fff, 0x3fff,
      0x3fff, 0x3fff, 0x3fff, 0x3fff, 0x3fff, 0x3fff, 0x3fff, 0x3fff,
      0x3fff, 0x3fff, 0x3fff, 0x3fff, 0x3fff, 0x3fff, 0x3fff, 0x3fff,
      0x3fff, 0x3fff, 0x3fff, 0x3fff, 0x3fff, 0x3fff, 0x3fff, 0x3fff
};

const FIX_WT layer2_2_bn4_bias[32] = {
      0x3fff, 0x3fff, 0x3fff, 0x3fff, 0x3fff, 0x3fff, 0x3fff, 0x3fff,
      0x3fff, 0x3fff, 0x3fff, 0x3fff, 0x3fff, 0x3fff, 0x3fff, 0x3fff,
      0x3fff, 0x3fff, 0x3fff, 0x3fff, 0x3fff, 0x3fff, 0x3fff, 0x3fff,
      0x3fff, 0x3fff, 0x3fff, 0x3fff, 0x3fff, 0x3fff, 0x3fff, 0x3fff
};

const FIX_WT layer2_2_bn4_running_mean[32] = {
      0x3fff, 0x3fff, 0x3fff, 0x3fff, 0x3fff, 0x3fff, 0x3fff, 0x3fff,
      0x3fff, 0x3fff, 0x3fff, 0x3fff, 0x3fff, 0x3fff, 0x3fff, 0x3fff,
      0x3fff, 0x3fff, 0x3fff, 0x3fff, 0x3fff, 0x3fff, 0x3fff, 0x3fff,
      0x3fff, 0x3fff, 0x3fff, 0x3fff, 0x3fff, 0x3fff, 0x3fff, 0x3fff
};

const FIX_WT layer2_2_bn4_running_var[32] = {
      0x3fff, 0x3fff, 0x3fff, 0x3fff, 0x3fff, 0x3fff, 0x3fff, 0x3fff,
      0x3fff, 0x3fff, 0x3fff, 0x3fff, 0x3fff, 0x3fff, 0x3fff, 0x3fff,
      0x3fff, 0x3fff, 0x3fff, 0x3fff, 0x3fff, 0x3fff, 0x3fff, 0x3fff,
      0x3fff, 0x3fff, 0x3fff, 0x3fff, 0x3fff, 0x3fff, 0x3fff, 0x3fff
};

const FIX_WT layer3_0_rprelu1_shift_x_bias[64] = {
     0x3fff, 0x3fff, 0x3fff, 0x3fff, 0x3fff, 0x3fff, 0x3fff, 0x3fff,
     0x3fff, 0x3fff, 0x3fff, 0x3fff, 0x3fff, 0x3fff, 0x3fff, 0x3fff,
     0x3fff, 0x3fff, 0x3fff, 0x3fff, 0x3fff, 0x3fff, 0x3fff, 0x3fff,
     0x3fff, 0x3fff, 0x3fff, 0x3fff, 0x3fff, 0x3fff, 0x3fff, 0x3fff,
     0x3fff, 0x3fff, 0x3fff, 0x3fff, 0x3fff, 0x3fff, 0x3fff, 0x3fff,
     0x3fff, 0x3fff, 0x3fff, 0x3fff, 0x3fff, 0x3fff, 0x3fff, 0x3fff,
     0x3fff, 0x3fff, 0x3fff, 0x3fff, 0x3fff, 0x3fff, 0x3fff, 0x3fff,
     0x3fff, 0x3fff, 0x3fff, 0x3fff, 0x3fff, 0x3fff, 0x3fff, 0x3fff
};

const FIX_WT layer3_0_rprelu1_shift_y_bias[64] = {
     0x3fff, 0x3fff, 0x3fff, 0x3fff, 0x3fff, 0x3fff, 0x3fff, 0x3fff,
     0x3fff, 0x3fff, 0x3fff, 0x3fff, 0x3fff, 0x3fff, 0x3fff, 0x3fff,
     0x3fff, 0x3fff, 0x3fff, 0x3fff, 0x3fff, 0x3fff, 0x3fff, 0x3fff,
     0x3fff, 0x3fff, 0x3fff, 0x3fff, 0x3fff, 0x3fff, 0x3fff, 0x3fff,
     0x3fff, 0x3fff, 0x3fff, 0x3fff, 0x3fff, 0x3fff, 0x3fff, 0x3fff,
     0x3fff, 0x3fff, 0x3fff, 0x3fff, 0x3fff, 0x3fff, 0x3fff, 0x3fff,
     0x3fff, 0x3fff, 0x3fff, 0x3fff, 0x3fff, 0x3fff, 0x3fff, 0x3fff,
     0x3fff, 0x3fff, 0x3fff, 0x3fff, 0x3fff, 0x3fff, 0x3fff, 0x3fff
};

const FIX_WT layer3_0_rprelu1_prelu_weight[64] = {
     0x3fff, 0x3fff, 0x3fff, 0x3fff, 0x3fff, 0x3fff, 0x3fff, 0x3fff,
     0x3fff, 0x3fff, 0x3fff, 0x3fff, 0x3fff, 0x3fff, 0x3fff, 0x3fff,
     0x3fff, 0x3fff, 0x3fff, 0x3fff, 0x3fff, 0x3fff, 0x3fff, 0x3fff,
     0x3fff, 0x3fff, 0x3fff, 0x3fff, 0x3fff, 0x3fff, 0x3fff, 0x3fff,
     0x3fff, 0x3fff, 0x3fff, 0x3fff, 0x3fff, 0x3fff, 0x3fff, 0x3fff,
     0x3fff, 0x3fff, 0x3fff, 0x3fff, 0x3fff, 0x3fff, 0x3fff, 0x3fff,
     0x3fff, 0x3fff, 0x3fff, 0x3fff, 0x3fff, 0x3fff, 0x3fff, 0x3fff,
     0x3fff, 0x3fff, 0x3fff, 0x3fff, 0x3fff, 0x3fff, 0x3fff, 0x3fff
};

const FIX_WT layer3_0_rprelu2_shift_x_bias[64] = {
     0x3fff, 0x3fff, 0x3fff, 0x3fff, 0x3fff, 0x3fff, 0x3fff, 0x3fff,
     0x3fff, 0x3fff, 0x3fff, 0x3fff, 0x3fff, 0x3fff, 0x3fff, 0x3fff,
     0x3fff, 0x3fff, 0x3fff, 0x3fff, 0x3fff, 0x3fff, 0x3fff, 0x3fff,
     0x3fff, 0x3fff, 0x3fff, 0x3fff, 0x3fff, 0x3fff, 0x3fff, 0x3fff,
     0x3fff, 0x3fff, 0x3fff, 0x3fff, 0x3fff, 0x3fff, 0x3fff, 0x3fff,
     0x3fff, 0x3fff, 0x3fff, 0x3fff, 0x3fff, 0x3fff, 0x3fff, 0x3fff,
     0x3fff, 0x3fff, 0x3fff, 0x3fff, 0x3fff, 0x3fff, 0x3fff, 0x3fff,
     0x3fff, 0x3fff, 0x3fff, 0x3fff, 0x3fff, 0x3fff, 0x3fff, 0x3fff
};

const FIX_WT layer3_0_rprelu2_shift_y_bias[64] = {
     0x3fff, 0x3fff, 0x3fff, 0x3fff, 0x3fff, 0x3fff, 0x3fff, 0x3fff,
     0x3fff, 0x3fff, 0x3fff, 0x3fff, 0x3fff, 0x3fff, 0x3fff, 0x3fff,
     0x3fff, 0x3fff, 0x3fff, 0x3fff, 0x3fff, 0x3fff, 0x3fff, 0x3fff,
     0x3fff, 0x3fff, 0x3fff, 0x3fff, 0x3fff, 0x3fff, 0x3fff, 0x3fff,
     0x3fff, 0x3fff, 0x3fff, 0x3fff, 0x3fff, 0x3fff, 0x3fff, 0x3fff,
     0x3fff, 0x3fff, 0x3fff, 0x3fff, 0x3fff, 0x3fff, 0x3fff, 0x3fff,
     0x3fff, 0x3fff, 0x3fff, 0x3fff, 0x3fff, 0x3fff, 0x3fff, 0x3fff,
     0x3fff, 0x3fff, 0x3fff, 0x3fff, 0x3fff, 0x3fff, 0x3fff, 0x3fff
};

const FIX_WT layer3_0_rprelu2_prelu_weight[64] = {
     0x3fff, 0x3fff, 0x3fff, 0x3fff, 0x3fff, 0x3fff, 0x3fff, 0x3fff,
     0x3fff, 0x3fff, 0x3fff, 0x3fff, 0x3fff, 0x3fff, 0x3fff, 0x3fff,
     0x3fff, 0x3fff, 0x3fff, 0x3fff, 0x3fff, 0x3fff, 0x3fff, 0x3fff,
     0x3fff, 0x3fff, 0x3fff, 0x3fff, 0x3fff, 0x3fff, 0x3fff, 0x3fff,
     0x3fff, 0x3fff, 0x3fff, 0x3fff, 0x3fff, 0x3fff, 0x3fff, 0x3fff,
     0x3fff, 0x3fff, 0x3fff, 0x3fff, 0x3fff, 0x3fff, 0x3fff, 0x3fff,
     0x3fff, 0x3fff, 0x3fff, 0x3fff, 0x3fff, 0x3fff, 0x3fff, 0x3fff,
     0x3fff, 0x3fff, 0x3fff, 0x3fff, 0x3fff, 0x3fff, 0x3fff, 0x3fff
};

const uint64 layer3_0_conv1_weight[64][3][3] = {
   {{0xffffffff, 0xffffffff, 0xffffffff}, {0xffffffff, 0xffffffff, 0xffffffff}, {0xffffffff, 0xffffffff, 0xffffffff}},
   {{0xffffffff, 0xffffffff, 0xffffffff}, {0xffffffff, 0xffffffff, 0xffffffff}, {0xffffffff, 0xffffffff, 0xffffffff}},
   {{0xffffffff, 0xffffffff, 0xffffffff}, {0xffffffff, 0xffffffff, 0xffffffff}, {0xffffffff, 0xffffffff, 0xffffffff}},
   {{0xffffffff, 0xffffffff, 0xffffffff}, {0xffffffff, 0xffffffff, 0xffffffff}, {0xffffffff, 0xffffffff, 0xffffffff}},
   {{0xffffffff, 0xffffffff, 0xffffffff}, {0xffffffff, 0xffffffff, 0xffffffff}, {0xffffffff, 0xffffffff, 0xffffffff}},
   {{0xffffffff, 0xffffffff, 0xffffffff}, {0xffffffff, 0xffffffff, 0xffffffff}, {0xffffffff, 0xffffffff, 0xffffffff}},
   {{0xffffffff, 0xffffffff, 0xffffffff}, {0xffffffff, 0xffffffff, 0xffffffff}, {0xffffffff, 0xffffffff, 0xffffffff}},
   {{0xffffffff, 0xffffffff, 0xffffffff}, {0xffffffff, 0xffffffff, 0xffffffff}, {0xffffffff, 0xffffffff, 0xffffffff}},
   {{0xffffffff, 0xffffffff, 0xffffffff}, {0xffffffff, 0xffffffff, 0xffffffff}, {0xffffffff, 0xffffffff, 0xffffffff}},
   {{0xffffffff, 0xffffffff, 0xffffffff}, {0xffffffff, 0xffffffff, 0xffffffff}, {0xffffffff, 0xffffffff, 0xffffffff}},
   {{0xffffffff, 0xffffffff, 0xffffffff}, {0xffffffff, 0xffffffff, 0xffffffff}, {0xffffffff, 0xffffffff, 0xffffffff}},
   {{0xffffffff, 0xffffffff, 0xffffffff}, {0xffffffff, 0xffffffff, 0xffffffff}, {0xffffffff, 0xffffffff, 0xffffffff}},
   {{0xffffffff, 0xffffffff, 0xffffffff}, {0xffffffff, 0xffffffff, 0xffffffff}, {0xffffffff, 0xffffffff, 0xffffffff}},
   {{0xffffffff, 0xffffffff, 0xffffffff}, {0xffffffff, 0xffffffff, 0xffffffff}, {0xffffffff, 0xffffffff, 0xffffffff}},
   {{0xffffffff, 0xffffffff, 0xffffffff}, {0xffffffff, 0xffffffff, 0xffffffff}, {0xffffffff, 0xffffffff, 0xffffffff}},
   {{0xffffffff, 0xffffffff, 0xffffffff}, {0xffffffff, 0xffffffff, 0xffffffff}, {0xffffffff, 0xffffffff, 0xffffffff}},
   {{0xffffffff, 0xffffffff, 0xffffffff}, {0xffffffff, 0xffffffff, 0xffffffff}, {0xffffffff, 0xffffffff, 0xffffffff}},
   {{0xffffffff, 0xffffffff, 0xffffffff}, {0xffffffff, 0xffffffff, 0xffffffff}, {0xffffffff, 0xffffffff, 0xffffffff}},
   {{0xffffffff, 0xffffffff, 0xffffffff}, {0xffffffff, 0xffffffff, 0xffffffff}, {0xffffffff, 0xffffffff, 0xffffffff}},
   {{0xffffffff, 0xffffffff, 0xffffffff}, {0xffffffff, 0xffffffff, 0xffffffff}, {0xffffffff, 0xffffffff, 0xffffffff}},
   {{0xffffffff, 0xffffffff, 0xffffffff}, {0xffffffff, 0xffffffff, 0xffffffff}, {0xffffffff, 0xffffffff, 0xffffffff}},
   {{0xffffffff, 0xffffffff, 0xffffffff}, {0xffffffff, 0xffffffff, 0xffffffff}, {0xffffffff, 0xffffffff, 0xffffffff}},
   {{0xffffffff, 0xffffffff, 0xffffffff}, {0xffffffff, 0xffffffff, 0xffffffff}, {0xffffffff, 0xffffffff, 0xffffffff}},
   {{0xffffffff, 0xffffffff, 0xffffffff}, {0xffffffff, 0xffffffff, 0xffffffff}, {0xffffffff, 0xffffffff, 0xffffffff}},
   {{0xffffffff, 0xffffffff, 0xffffffff}, {0xffffffff, 0xffffffff, 0xffffffff}, {0xffffffff, 0xffffffff, 0xffffffff}},
   {{0xffffffff, 0xffffffff, 0xffffffff}, {0xffffffff, 0xffffffff, 0xffffffff}, {0xffffffff, 0xffffffff, 0xffffffff}},
   {{0xffffffff, 0xffffffff, 0xffffffff}, {0xffffffff, 0xffffffff, 0xffffffff}, {0xffffffff, 0xffffffff, 0xffffffff}},
   {{0xffffffff, 0xffffffff, 0xffffffff}, {0xffffffff, 0xffffffff, 0xffffffff}, {0xffffffff, 0xffffffff, 0xffffffff}},
   {{0xffffffff, 0xffffffff, 0xffffffff}, {0xffffffff, 0xffffffff, 0xffffffff}, {0xffffffff, 0xffffffff, 0xffffffff}},
   {{0xffffffff, 0xffffffff, 0xffffffff}, {0xffffffff, 0xffffffff, 0xffffffff}, {0xffffffff, 0xffffffff, 0xffffffff}},
   {{0xffffffff, 0xffffffff, 0xffffffff}, {0xffffffff, 0xffffffff, 0xffffffff}, {0xffffffff, 0xffffffff, 0xffffffff}},
   {{0xffffffff, 0xffffffff, 0xffffffff}, {0xffffffff, 0xffffffff, 0xffffffff}, {0xffffffff, 0xffffffff, 0xffffffff}}
};

const FIX_WT layer3_0_conv1_threshold[64] = {
     0x3fff, 0x3fff, 0x3fff, 0x3fff, 0x3fff, 0x3fff, 0x3fff, 0x3fff,
     0x3fff, 0x3fff, 0x3fff, 0x3fff, 0x3fff, 0x3fff, 0x3fff, 0x3fff,
     0x3fff, 0x3fff, 0x3fff, 0x3fff, 0x3fff, 0x3fff, 0x3fff, 0x3fff,
     0x3fff, 0x3fff, 0x3fff, 0x3fff, 0x3fff, 0x3fff, 0x3fff, 0x3fff,
     0x3fff, 0x3fff, 0x3fff, 0x3fff, 0x3fff, 0x3fff, 0x3fff, 0x3fff,
     0x3fff, 0x3fff, 0x3fff, 0x3fff, 0x3fff, 0x3fff, 0x3fff, 0x3fff,
     0x3fff, 0x3fff, 0x3fff, 0x3fff, 0x3fff, 0x3fff, 0x3fff, 0x3fff,
     0x3fff, 0x3fff, 0x3fff, 0x3fff, 0x3fff, 0x3fff, 0x3fff, 0x3fff
};

const FIX_WT layer3_0_bn1_weight[64] = {
     0x3fff, 0x3fff, 0x3fff, 0x3fff, 0x3fff, 0x3fff, 0x3fff, 0x3fff,
     0x3fff, 0x3fff, 0x3fff, 0x3fff, 0x3fff, 0x3fff, 0x3fff, 0x3fff,
     0x3fff, 0x3fff, 0x3fff, 0x3fff, 0x3fff, 0x3fff, 0x3fff, 0x3fff,
     0x3fff, 0x3fff, 0x3fff, 0x3fff, 0x3fff, 0x3fff, 0x3fff, 0x3fff,
     0x3fff, 0x3fff, 0x3fff, 0x3fff, 0x3fff, 0x3fff, 0x3fff, 0x3fff,
     0x3fff, 0x3fff, 0x3fff, 0x3fff, 0x3fff, 0x3fff, 0x3fff, 0x3fff,
     0x3fff, 0x3fff, 0x3fff, 0x3fff, 0x3fff, 0x3fff, 0x3fff, 0x3fff,
     0x3fff, 0x3fff, 0x3fff, 0x3fff, 0x3fff, 0x3fff, 0x3fff, 0x3fff
};

const FIX_WT layer3_0_bn1_bias[64] = {
     0x3fff, 0x3fff, 0x3fff, 0x3fff, 0x3fff, 0x3fff, 0x3fff, 0x3fff,
     0x3fff, 0x3fff, 0x3fff, 0x3fff, 0x3fff, 0x3fff, 0x3fff, 0x3fff,
     0x3fff, 0x3fff, 0x3fff, 0x3fff, 0x3fff, 0x3fff, 0x3fff, 0x3fff,
     0x3fff, 0x3fff, 0x3fff, 0x3fff, 0x3fff, 0x3fff, 0x3fff, 0x3fff,
     0x3fff, 0x3fff, 0x3fff, 0x3fff, 0x3fff, 0x3fff, 0x3fff, 0x3fff,
     0x3fff, 0x3fff, 0x3fff, 0x3fff, 0x3fff, 0x3fff, 0x3fff, 0x3fff,
     0x3fff, 0x3fff, 0x3fff, 0x3fff, 0x3fff, 0x3fff, 0x3fff, 0x3fff,
     0x3fff, 0x3fff, 0x3fff, 0x3fff, 0x3fff, 0x3fff, 0x3fff, 0x3fff
};

const FIX_WT layer3_0_bn1_running_mean[64] = {
     0x3fff, 0x3fff, 0x3fff, 0x3fff, 0x3fff, 0x3fff, 0x3fff, 0x3fff,
     0x3fff, 0x3fff, 0x3fff, 0x3fff, 0x3fff, 0x3fff, 0x3fff, 0x3fff,
     0x3fff, 0x3fff, 0x3fff, 0x3fff, 0x3fff, 0x3fff, 0x3fff, 0x3fff,
     0x3fff, 0x3fff, 0x3fff, 0x3fff, 0x3fff, 0x3fff, 0x3fff, 0x3fff,
     0x3fff, 0x3fff, 0x3fff, 0x3fff, 0x3fff, 0x3fff, 0x3fff, 0x3fff,
     0x3fff, 0x3fff, 0x3fff, 0x3fff, 0x3fff, 0x3fff, 0x3fff, 0x3fff,
     0x3fff, 0x3fff, 0x3fff, 0x3fff, 0x3fff, 0x3fff, 0x3fff, 0x3fff,
     0x3fff, 0x3fff, 0x3fff, 0x3fff, 0x3fff, 0x3fff, 0x3fff, 0x3fff
};

const FIX_WT layer3_0_bn1_running_var[64] = {
     0x3fff, 0x3fff, 0x3fff, 0x3fff, 0x3fff, 0x3fff, 0x3fff, 0x3fff,
     0x3fff, 0x3fff, 0x3fff, 0x3fff, 0x3fff, 0x3fff, 0x3fff, 0x3fff,
     0x3fff, 0x3fff, 0x3fff, 0x3fff, 0x3fff, 0x3fff, 0x3fff, 0x3fff,
     0x3fff, 0x3fff, 0x3fff, 0x3fff, 0x3fff, 0x3fff, 0x3fff, 0x3fff,
     0x3fff, 0x3fff, 0x3fff, 0x3fff, 0x3fff, 0x3fff, 0x3fff, 0x3fff,
     0x3fff, 0x3fff, 0x3fff, 0x3fff, 0x3fff, 0x3fff, 0x3fff, 0x3fff,
     0x3fff, 0x3fff, 0x3fff, 0x3fff, 0x3fff, 0x3fff, 0x3fff, 0x3fff,
     0x3fff, 0x3fff, 0x3fff, 0x3fff, 0x3fff, 0x3fff, 0x3fff, 0x3fff
};

const uint64 layer3_0_conv2_weight[64][3][3] = {
   {{0xffffffffffffffff, 0xffffffffffffffff, 0xffffffffffffffff}, {0xffffffffffffffff, 0xffffffffffffffff, 0xffffffffffffffff}, {0xffffffffffffffff, 0xffffffffffffffff, 0xffffffffffffffff}},
   {{0xffffffffffffffff, 0xffffffffffffffff, 0xffffffffffffffff}, {0xffffffffffffffff, 0xffffffffffffffff, 0xffffffffffffffff}, {0xffffffffffffffff, 0xffffffffffffffff, 0xffffffffffffffff}},
   {{0xffffffffffffffff, 0xffffffffffffffff, 0xffffffffffffffff}, {0xffffffffffffffff, 0xffffffffffffffff, 0xffffffffffffffff}, {0xffffffffffffffff, 0xffffffffffffffff, 0xffffffffffffffff}},
   {{0xffffffffffffffff, 0xffffffffffffffff, 0xffffffffffffffff}, {0xffffffffffffffff, 0xffffffffffffffff, 0xffffffffffffffff}, {0xffffffffffffffff, 0xffffffffffffffff, 0xffffffffffffffff}},
   {{0xffffffffffffffff, 0xffffffffffffffff, 0xffffffffffffffff}, {0xffffffffffffffff, 0xffffffffffffffff, 0xffffffffffffffff}, {0xffffffffffffffff, 0xffffffffffffffff, 0xffffffffffffffff}},
   {{0xffffffffffffffff, 0xffffffffffffffff, 0xffffffffffffffff}, {0xffffffffffffffff, 0xffffffffffffffff, 0xffffffffffffffff}, {0xffffffffffffffff, 0xffffffffffffffff, 0xffffffffffffffff}},
   {{0xffffffffffffffff, 0xffffffffffffffff, 0xffffffffffffffff}, {0xffffffffffffffff, 0xffffffffffffffff, 0xffffffffffffffff}, {0xffffffffffffffff, 0xffffffffffffffff, 0xffffffffffffffff}},
   {{0xffffffffffffffff, 0xffffffffffffffff, 0xffffffffffffffff}, {0xffffffffffffffff, 0xffffffffffffffff, 0xffffffffffffffff}, {0xffffffffffffffff, 0xffffffffffffffff, 0xffffffffffffffff}},
   {{0xffffffffffffffff, 0xffffffffffffffff, 0xffffffffffffffff}, {0xffffffffffffffff, 0xffffffffffffffff, 0xffffffffffffffff}, {0xffffffffffffffff, 0xffffffffffffffff, 0xffffffffffffffff}},
   {{0xffffffffffffffff, 0xffffffffffffffff, 0xffffffffffffffff}, {0xffffffffffffffff, 0xffffffffffffffff, 0xffffffffffffffff}, {0xffffffffffffffff, 0xffffffffffffffff, 0xffffffffffffffff}},
   {{0xffffffffffffffff, 0xffffffffffffffff, 0xffffffffffffffff}, {0xffffffffffffffff, 0xffffffffffffffff, 0xffffffffffffffff}, {0xffffffffffffffff, 0xffffffffffffffff, 0xffffffffffffffff}},
   {{0xffffffffffffffff, 0xffffffffffffffff, 0xffffffffffffffff}, {0xffffffffffffffff, 0xffffffffffffffff, 0xffffffffffffffff}, {0xffffffffffffffff, 0xffffffffffffffff, 0xffffffffffffffff}},
   {{0xffffffffffffffff, 0xffffffffffffffff, 0xffffffffffffffff}, {0xffffffffffffffff, 0xffffffffffffffff, 0xffffffffffffffff}, {0xffffffffffffffff, 0xffffffffffffffff, 0xffffffffffffffff}},
   {{0xffffffffffffffff, 0xffffffffffffffff, 0xffffffffffffffff}, {0xffffffffffffffff, 0xffffffffffffffff, 0xffffffffffffffff}, {0xffffffffffffffff, 0xffffffffffffffff, 0xffffffffffffffff}},
   {{0xffffffffffffffff, 0xffffffffffffffff, 0xffffffffffffffff}, {0xffffffffffffffff, 0xffffffffffffffff, 0xffffffffffffffff}, {0xffffffffffffffff, 0xffffffffffffffff, 0xffffffffffffffff}},
   {{0xffffffffffffffff, 0xffffffffffffffff, 0xffffffffffffffff}, {0xffffffffffffffff, 0xffffffffffffffff, 0xffffffffffffffff}, {0xffffffffffffffff, 0xffffffffffffffff, 0xffffffffffffffff}},
   {{0xffffffffffffffff, 0xffffffffffffffff, 0xffffffffffffffff}, {0xffffffffffffffff, 0xffffffffffffffff, 0xffffffffffffffff}, {0xffffffffffffffff, 0xffffffffffffffff, 0xffffffffffffffff}},
   {{0xffffffffffffffff, 0xffffffffffffffff, 0xffffffffffffffff}, {0xffffffffffffffff, 0xffffffffffffffff, 0xffffffffffffffff}, {0xffffffffffffffff, 0xffffffffffffffff, 0xffffffffffffffff}},
   {{0xffffffffffffffff, 0xffffffffffffffff, 0xffffffffffffffff}, {0xffffffffffffffff, 0xffffffffffffffff, 0xffffffffffffffff}, {0xffffffffffffffff, 0xffffffffffffffff, 0xffffffffffffffff}},
   {{0xffffffffffffffff, 0xffffffffffffffff, 0xffffffffffffffff}, {0xffffffffffffffff, 0xffffffffffffffff, 0xffffffffffffffff}, {0xffffffffffffffff, 0xffffffffffffffff, 0xffffffffffffffff}},
   {{0xffffffffffffffff, 0xffffffffffffffff, 0xffffffffffffffff}, {0xffffffffffffffff, 0xffffffffffffffff, 0xffffffffffffffff}, {0xffffffffffffffff, 0xffffffffffffffff, 0xffffffffffffffff}},
   {{0xffffffffffffffff, 0xffffffffffffffff, 0xffffffffffffffff}, {0xffffffffffffffff, 0xffffffffffffffff, 0xffffffffffffffff}, {0xffffffffffffffff, 0xffffffffffffffff, 0xffffffffffffffff}},
   {{0xffffffffffffffff, 0xffffffffffffffff, 0xffffffffffffffff}, {0xffffffffffffffff, 0xffffffffffffffff, 0xffffffffffffffff}, {0xffffffffffffffff, 0xffffffffffffffff, 0xffffffffffffffff}},
   {{0xffffffffffffffff, 0xffffffffffffffff, 0xffffffffffffffff}, {0xffffffffffffffff, 0xffffffffffffffff, 0xffffffffffffffff}, {0xffffffffffffffff, 0xffffffffffffffff, 0xffffffffffffffff}},
   {{0xffffffffffffffff, 0xffffffffffffffff, 0xffffffffffffffff}, {0xffffffffffffffff, 0xffffffffffffffff, 0xffffffffffffffff}, {0xffffffffffffffff, 0xffffffffffffffff, 0xffffffffffffffff}},
   {{0xffffffffffffffff, 0xffffffffffffffff, 0xffffffffffffffff}, {0xffffffffffffffff, 0xffffffffffffffff, 0xffffffffffffffff}, {0xffffffffffffffff, 0xffffffffffffffff, 0xffffffffffffffff}},
   {{0xffffffffffffffff, 0xffffffffffffffff, 0xffffffffffffffff}, {0xffffffffffffffff, 0xffffffffffffffff, 0xffffffffffffffff}, {0xffffffffffffffff, 0xffffffffffffffff, 0xffffffffffffffff}},
   {{0xffffffffffffffff, 0xffffffffffffffff, 0xffffffffffffffff}, {0xffffffffffffffff, 0xffffffffffffffff, 0xffffffffffffffff}, {0xffffffffffffffff, 0xffffffffffffffff, 0xffffffffffffffff}},
   {{0xffffffffffffffff, 0xffffffffffffffff, 0xffffffffffffffff}, {0xffffffffffffffff, 0xffffffffffffffff, 0xffffffffffffffff}, {0xffffffffffffffff, 0xffffffffffffffff, 0xffffffffffffffff}},
   {{0xffffffffffffffff, 0xffffffffffffffff, 0xffffffffffffffff}, {0xffffffffffffffff, 0xffffffffffffffff, 0xffffffffffffffff}, {0xffffffffffffffff, 0xffffffffffffffff, 0xffffffffffffffff}},
   {{0xffffffffffffffff, 0xffffffffffffffff, 0xffffffffffffffff}, {0xffffffffffffffff, 0xffffffffffffffff, 0xffffffffffffffff}, {0xffffffffffffffff, 0xffffffffffffffff, 0xffffffffffffffff}},
   {{0xffffffffffffffff, 0xffffffffffffffff, 0xffffffffffffffff}, {0xffffffffffffffff, 0xffffffffffffffff, 0xffffffffffffffff}, {0xffffffffffffffff, 0xffffffffffffffff, 0xffffffffffffffff}},
   {{0xffffffffffffffff, 0xffffffffffffffff, 0xffffffffffffffff}, {0xffffffffffffffff, 0xffffffffffffffff, 0xffffffffffffffff}, {0xffffffffffffffff, 0xffffffffffffffff, 0xffffffffffffffff}},
   {{0xffffffffffffffff, 0xffffffffffffffff, 0xffffffffffffffff}, {0xffffffffffffffff, 0xffffffffffffffff, 0xffffffffffffffff}, {0xffffffffffffffff, 0xffffffffffffffff, 0xffffffffffffffff}},
   {{0xffffffffffffffff, 0xffffffffffffffff, 0xffffffffffffffff}, {0xffffffffffffffff, 0xffffffffffffffff, 0xffffffffffffffff}, {0xffffffffffffffff, 0xffffffffffffffff, 0xffffffffffffffff}},
   {{0xffffffffffffffff, 0xffffffffffffffff, 0xffffffffffffffff}, {0xffffffffffffffff, 0xffffffffffffffff, 0xffffffffffffffff}, {0xffffffffffffffff, 0xffffffffffffffff, 0xffffffffffffffff}},
   {{0xffffffffffffffff, 0xffffffffffffffff, 0xffffffffffffffff}, {0xffffffffffffffff, 0xffffffffffffffff, 0xffffffffffffffff}, {0xffffffffffffffff, 0xffffffffffffffff, 0xffffffffffffffff}},
   {{0xffffffffffffffff, 0xffffffffffffffff, 0xffffffffffffffff}, {0xffffffffffffffff, 0xffffffffffffffff, 0xffffffffffffffff}, {0xffffffffffffffff, 0xffffffffffffffff, 0xffffffffffffffff}},
   {{0xffffffffffffffff, 0xffffffffffffffff, 0xffffffffffffffff}, {0xffffffffffffffff, 0xffffffffffffffff, 0xffffffffffffffff}, {0xffffffffffffffff, 0xffffffffffffffff, 0xffffffffffffffff}},
   {{0xffffffffffffffff, 0xffffffffffffffff, 0xffffffffffffffff}, {0xffffffffffffffff, 0xffffffffffffffff, 0xffffffffffffffff}, {0xffffffffffffffff, 0xffffffffffffffff, 0xffffffffffffffff}},
   {{0xffffffffffffffff, 0xffffffffffffffff, 0xffffffffffffffff}, {0xffffffffffffffff, 0xffffffffffffffff, 0xffffffffffffffff}, {0xffffffffffffffff, 0xffffffffffffffff, 0xffffffffffffffff}},
   {{0xffffffffffffffff, 0xffffffffffffffff, 0xffffffffffffffff}, {0xffffffffffffffff, 0xffffffffffffffff, 0xffffffffffffffff}, {0xffffffffffffffff, 0xffffffffffffffff, 0xffffffffffffffff}},
   {{0xffffffffffffffff, 0xffffffffffffffff, 0xffffffffffffffff}, {0xffffffffffffffff, 0xffffffffffffffff, 0xffffffffffffffff}, {0xffffffffffffffff, 0xffffffffffffffff, 0xffffffffffffffff}},
   {{0xffffffffffffffff, 0xffffffffffffffff, 0xffffffffffffffff}, {0xffffffffffffffff, 0xffffffffffffffff, 0xffffffffffffffff}, {0xffffffffffffffff, 0xffffffffffffffff, 0xffffffffffffffff}},
   {{0xffffffffffffffff, 0xffffffffffffffff, 0xffffffffffffffff}, {0xffffffffffffffff, 0xffffffffffffffff, 0xffffffffffffffff}, {0xffffffffffffffff, 0xffffffffffffffff, 0xffffffffffffffff}},
   {{0xffffffffffffffff, 0xffffffffffffffff, 0xffffffffffffffff}, {0xffffffffffffffff, 0xffffffffffffffff, 0xffffffffffffffff}, {0xffffffffffffffff, 0xffffffffffffffff, 0xffffffffffffffff}},
   {{0xffffffffffffffff, 0xffffffffffffffff, 0xffffffffffffffff}, {0xffffffffffffffff, 0xffffffffffffffff, 0xffffffffffffffff}, {0xffffffffffffffff, 0xffffffffffffffff, 0xffffffffffffffff}},
   {{0xffffffffffffffff, 0xffffffffffffffff, 0xffffffffffffffff}, {0xffffffffffffffff, 0xffffffffffffffff, 0xffffffffffffffff}, {0xffffffffffffffff, 0xffffffffffffffff, 0xffffffffffffffff}},
   {{0xffffffffffffffff, 0xffffffffffffffff, 0xffffffffffffffff}, {0xffffffffffffffff, 0xffffffffffffffff, 0xffffffffffffffff}, {0xffffffffffffffff, 0xffffffffffffffff, 0xffffffffffffffff}},
   {{0xffffffffffffffff, 0xffffffffffffffff, 0xffffffffffffffff}, {0xffffffffffffffff, 0xffffffffffffffff, 0xffffffffffffffff}, {0xffffffffffffffff, 0xffffffffffffffff, 0xffffffffffffffff}},
   {{0xffffffffffffffff, 0xffffffffffffffff, 0xffffffffffffffff}, {0xffffffffffffffff, 0xffffffffffffffff, 0xffffffffffffffff}, {0xffffffffffffffff, 0xffffffffffffffff, 0xffffffffffffffff}},
   {{0xffffffffffffffff, 0xffffffffffffffff, 0xffffffffffffffff}, {0xffffffffffffffff, 0xffffffffffffffff, 0xffffffffffffffff}, {0xffffffffffffffff, 0xffffffffffffffff, 0xffffffffffffffff}},
   {{0xffffffffffffffff, 0xffffffffffffffff, 0xffffffffffffffff}, {0xffffffffffffffff, 0xffffffffffffffff, 0xffffffffffffffff}, {0xffffffffffffffff, 0xffffffffffffffff, 0xffffffffffffffff}},
   {{0xffffffffffffffff, 0xffffffffffffffff, 0xffffffffffffffff}, {0xffffffffffffffff, 0xffffffffffffffff, 0xffffffffffffffff}, {0xffffffffffffffff, 0xffffffffffffffff, 0xffffffffffffffff}},
   {{0xffffffffffffffff, 0xffffffffffffffff, 0xffffffffffffffff}, {0xffffffffffffffff, 0xffffffffffffffff, 0xffffffffffffffff}, {0xffffffffffffffff, 0xffffffffffffffff, 0xffffffffffffffff}},
   {{0xffffffffffffffff, 0xffffffffffffffff, 0xffffffffffffffff}, {0xffffffffffffffff, 0xffffffffffffffff, 0xffffffffffffffff}, {0xffffffffffffffff, 0xffffffffffffffff, 0xffffffffffffffff}},
   {{0xffffffffffffffff, 0xffffffffffffffff, 0xffffffffffffffff}, {0xffffffffffffffff, 0xffffffffffffffff, 0xffffffffffffffff}, {0xffffffffffffffff, 0xffffffffffffffff, 0xffffffffffffffff}},
   {{0xffffffffffffffff, 0xffffffffffffffff, 0xffffffffffffffff}, {0xffffffffffffffff, 0xffffffffffffffff, 0xffffffffffffffff}, {0xffffffffffffffff, 0xffffffffffffffff, 0xffffffffffffffff}},
   {{0xffffffffffffffff, 0xffffffffffffffff, 0xffffffffffffffff}, {0xffffffffffffffff, 0xffffffffffffffff, 0xffffffffffffffff}, {0xffffffffffffffff, 0xffffffffffffffff, 0xffffffffffffffff}},
   {{0xffffffffffffffff, 0xffffffffffffffff, 0xffffffffffffffff}, {0xffffffffffffffff, 0xffffffffffffffff, 0xffffffffffffffff}, {0xffffffffffffffff, 0xffffffffffffffff, 0xffffffffffffffff}},
   {{0xffffffffffffffff, 0xffffffffffffffff, 0xffffffffffffffff}, {0xffffffffffffffff, 0xffffffffffffffff, 0xffffffffffffffff}, {0xffffffffffffffff, 0xffffffffffffffff, 0xffffffffffffffff}},
   {{0xffffffffffffffff, 0xffffffffffffffff, 0xffffffffffffffff}, {0xffffffffffffffff, 0xffffffffffffffff, 0xffffffffffffffff}, {0xffffffffffffffff, 0xffffffffffffffff, 0xffffffffffffffff}},
   {{0xffffffffffffffff, 0xffffffffffffffff, 0xffffffffffffffff}, {0xffffffffffffffff, 0xffffffffffffffff, 0xffffffffffffffff}, {0xffffffffffffffff, 0xffffffffffffffff, 0xffffffffffffffff}},
   {{0xffffffffffffffff, 0xffffffffffffffff, 0xffffffffffffffff}, {0xffffffffffffffff, 0xffffffffffffffff, 0xffffffffffffffff}, {0xffffffffffffffff, 0xffffffffffffffff, 0xffffffffffffffff}}
};

const FIX_WT layer3_0_conv2_threshold[64] = {
     0x3fff, 0x3fff, 0x3fff, 0x3fff, 0x3fff, 0x3fff, 0x3fff, 0x3fff,
     0x3fff, 0x3fff, 0x3fff, 0x3fff, 0x3fff, 0x3fff, 0x3fff, 0x3fff,
     0x3fff, 0x3fff, 0x3fff, 0x3fff, 0x3fff, 0x3fff, 0x3fff, 0x3fff,
     0x3fff, 0x3fff, 0x3fff, 0x3fff, 0x3fff, 0x3fff, 0x3fff, 0x3fff,
     0x3fff, 0x3fff, 0x3fff, 0x3fff, 0x3fff, 0x3fff, 0x3fff, 0x3fff,
     0x3fff, 0x3fff, 0x3fff, 0x3fff, 0x3fff, 0x3fff, 0x3fff, 0x3fff,
     0x3fff, 0x3fff, 0x3fff, 0x3fff, 0x3fff, 0x3fff, 0x3fff, 0x3fff,
     0x3fff, 0x3fff, 0x3fff, 0x3fff, 0x3fff, 0x3fff, 0x3fff, 0x3fff
};

const FIX_WT layer3_0_bn2_weight[64] = {
     0x3fff, 0x3fff, 0x3fff, 0x3fff, 0x3fff, 0x3fff, 0x3fff, 0x3fff,
     0x3fff, 0x3fff, 0x3fff, 0x3fff, 0x3fff, 0x3fff, 0x3fff, 0x3fff,
     0x3fff, 0x3fff, 0x3fff, 0x3fff, 0x3fff, 0x3fff, 0x3fff, 0x3fff,
     0x3fff, 0x3fff, 0x3fff, 0x3fff, 0x3fff, 0x3fff, 0x3fff, 0x3fff,
     0x3fff, 0x3fff, 0x3fff, 0x3fff, 0x3fff, 0x3fff, 0x3fff, 0x3fff,
